/**
  ******************************************************************************
  * @file    network_data_params.c
  * @author  AST Embedded Analytics Research Platform
  * @date    2025-08-16T22:04:30+1000
  * @brief   AI Tool Automatic Code Generator for Embedded NN computing
  ******************************************************************************
  * Copyright (c) 2025 STMicroelectronics.
  * All rights reserved.
  *
  * This software is licensed under terms that can be found in the LICENSE file
  * in the root directory of this software component.
  * If no LICENSE file comes with this software, it is provided AS-IS.
  ******************************************************************************
  */

#include "network_data_params.h"


/**  Activations Section  ****************************************************/
ai_handle g_network_activations_table[1 + 2] = {
  AI_HANDLE_PTR(AI_MAGIC_MARKER),
  AI_HANDLE_PTR(NULL),
  AI_HANDLE_PTR(AI_MAGIC_MARKER),
};




/**  Weights Section  ********************************************************/
AI_ALIGNED(32)
const ai_u64 s_network_weights_array_u64[13534] = {
  0x49f308f047fe372eU, 0xba4037361730f769U, 0x7b5a98126e6ef06U, 0xf83d81f3f30cfbdaU,
  0xe51d7a2c20c91478U, 0x3725b8385b58040bU, 0x26f130f10ed30254U, 0xc3371f3181181d39U,
  0x41509fb3f96419a5U, 0x7b401d8f819fb457U, 0x2b4db04a257ce085U, 0xefc24f580aef1918U,
  0xe0e0ca8187d5f962U, 0xc61bafb9ae848fe8U, 0xa3d1c60bffa9b1dbU, 0xf1f8bf87c0120422U,
  0xd9cec081d1fc001eU, 0x1630a2ef5dd9ab2U, 0x6687466312cU, 0x13e000014e3U,
  0xfffff8620000005fU, 0x7c000012ceU, 0x333ee5e245fa3536U, 0x14e3203d1abb1ce1U,
  0x22f4081144271eeeU, 0x20271b11ef433343U, 0xcde9012187dc0d16U, 0xffd3b8e5e7f8d7fcU,
  0xfe18e7f2c1e2f732U, 0xc3ff1004f21fca1bU, 0xe31283fe1f1ac31aU, 0xc5c410048b0d0cdeU,
  0xbec1efe637ecd3e4U, 0xd7feb9093217e914U, 0x27f20124a0f5211dU, 0xecf81bc3182093f5U,
  0xe40ace26a2e9162cU, 0x341de2ebd20b1c02U, 0xb4e42a2ae10ac716U, 0xc5e1a6fb18e3df14U,
  0xc8e72481eecee3U, 0xd0becd50cf3bfe7U, 0x58cd4808ebda24ecU, 0xe12d27da48400f0dU,
  0xf4fb0c2512e77f51U, 0x1feb1b0c210dfbf5U, 0xf33e1cd3331fec30U, 0xc25e41018f11712U,
  0x2e6ccfaf92ce1f2U, 0xc2fd28e50fe7f136U, 0xced0af014cecfdddU, 0xee2a85e4b7ce5b07U,
  0xef1308fabcd419fcU, 0xb2c2ddff3306e8b9U, 0x184990baf3c2363bU, 0x9de2330a9ebfcb7U,
  0xe0f70fd11b02f4e4U, 0x1b11c5fe00d719f4U, 0x16100614c5f4e0efU, 0x33c4fffe0416d533U,
  0x22e32197e52c06edU, 0xe20024e824b7fd1cU, 0xc3eee8fd1608e8c1U, 0xca07ebcd0c0a4b00U,
  0x29e007c407def209U, 0xe9b32152a8dd990U, 0x5d9fd6c22a084a83U, 0xf4d9dfd8084be7b7U,
  0x1c22e817c8b20ff7U, 0xf7812be1d523f68fU, 0xe0fe78fe1afef3dU, 0x2fef2a20c1f92536U,
  0x2a1f151df6ebd4e7U, 0xc9e9503bc526e0b4U, 0x7f7f20241f9f4d0U, 0xed10f9e01b03ee01U,
  0x460bf5cefceb4a0aU, 0xdc56f9f5ffe4c437U, 0x7fb0ce1e4ece034U, 0x15200ef30e010cf4U,
  0xd03154b1ead20f0U, 0x7f0001c2741fed5U, 0xe6f83511e4c9dbf3U, 0xc7d5cd2de00e07b3U,
  0x4f4f7060c2ef9adU, 0xd6fde3fcfb372d23U, 0xd2b40bd5550e05ecU, 0x3dd0fd810ae73ad6U,
  0x1210d0c911d8e828U, 0xce91f16de95191fU, 0x1003e1ccf7e85202U, 0xeb0b1410d5afe9f0U,
  0x3e362b041da63ce9U, 0xfce3d4abd526fea0U, 0xefdbfdb5a593fe20U, 0x1b04f711269bcabbU,
  0x11b33038f5fa5990U, 0xfadbff28d71e060bU, 0x8100cfa4d1219721U, 0xfb339bc6d6ced935U,
  0x1800242fc904b982U, 0xa12fe7c7d7f4d12eU, 0xb701c419c2b3a82eU, 0xfedef3ff061b20bfU,
  0xe6460efff922052cU, 0xa216a145daaab51cU, 0x290fcb15e006c3c0U, 0x1c46effa01ea1f32U,
  0xc4201d4ce8f9dde3U, 0xe3c4c410df15d4a4U, 0x48223700f5f9234aU, 0xc5d3394d0306dcefU,
  0xdbd2e404183902cdU, 0x3c602dfa01ebd0dcU, 0xd5d026282214f1eeU, 0xefd9c6f719560b1fU,
  0x2914faf6f4e5edd4U, 0xc9bc3634f3fef8baU, 0xb9caaae9141fdfedU, 0x2edf50ddb1dd1efU,
  0xd6812017131310bfU, 0xdf0cbeb52e170207U, 0xbbf0b8bef1f404f2U, 0xf5bb2b28f3ff151dU,
  0xfbd09016200b11U, 0xfad6f6f9f0edf9ffU, 0x32ece7020dcd2503U, 0x500e8d31d23f509U,
  0xfaf2fd13f1ad180bU, 0x18f5d60b1d3219d0U, 0xfc0a2ef204ff0406U, 0xf20e2828adf702faU,
  0xfbdcf424170bcabbU, 0xeb222feee4160a10U, 0xee220dcf0604ec06U, 0x743c10fb9ad3943U,
  0xced4cded9ac093d4U, 0xeaa91fdbcc0af3c4U, 0xd21c9ad94b3cf5e4U, 0xd3e80c3d81092917U,
  0xb9ec90c81e45832cU, 0xac0c07c61c32e7f1U, 0x418d8ebd3d620fbU, 0x924229f90301ac23U,
  0xdd11be2b18d4f016U, 0xe1ffb400ecc7e214U, 0xf3183e02b30ffee1U, 0xe3f6e9204903a1eeU,
  0xd0d70d2bd05745c3U, 0x261c13e4e51dcffaU, 0xb5f03b231212ef15U, 0x5412dfef25327709U,
  0xc93c33d5e2f6f65eU, 0xf8fd2b1d1619e9ffU, 0x25493981333a2420U, 0xc6fb1c2e47cbf034U,
  0x5ced3114d6300cdeU, 0x1334f5263e5cf5ecU, 0xdbe4133de3e6e0deU, 0x415f44615f132ceU,
  0xee1b02d72e35ce2aU, 0x162bebf7890f2bfeU, 0xfbc7c10ce317c60fU, 0xf7bd08e700eb1de2U,
  0xe0179ef220df1312U, 0xb128aa05d1ee8c2cU, 0xfb079224211de0c2U, 0xe1ee01d9ded922d7U,
  0x9e3cfb1b92f646cbU, 0xccd4bd4ffd2ac5edU, 0xe618a6ba89062632U, 0x9bee1fa2e1139841U,
  0xc6d83e2131c787b0U, 0x16c583cde11b08e2U, 0xef0acc04c6b5fa2eU, 0xc2c3d906c5f18e97U,
  0xffbdf08852292bccU, 0x4ef3adccf1cb560bU, 0xc9817c0bdd0dd1e0U, 0x16d815cd30499617U,
  0x30b5faf531cf30f9U, 0x403717f0cfef122cU, 0x953023ea071cb724U, 0xc9b3336a1836fa41U,
  0xbef0dbb21292702U, 0xd0270c2f2ccfcbfbU, 0x4cfbc7fc2924329cU, 0x1911feb81343053dU,
  0x15fa2738f2d83923U, 0x282fee01641ca97U, 0x3219d8c1e5232c51U, 0x1001f90ec3c4212bU,
  0xecb21df41324ddcbU, 0xe4f4ccc8eefb0522U, 0x1f27292fdfd4f705U, 0xcccd2035021381f5U,
  0xf3042cbaf9e4f917U, 0xcd00ec123edce9f7U, 0xd6e022073e2d47a5U, 0x312aefbc15122620U,
  0xe2ee18072dc3d4e4U, 0x798e50c161d1399U, 0xc2faee318ff1929U, 0xeffdd12ed3defe05U,
  0xe3f109f0d60f01ecU, 0xdef613d6edf7f7fbU, 0xe014ecfd9c2320ccU, 0xad17d9fce3ecc5e3U,
  0xee0af917f6d6ffd3U, 0xdd3acfd4be0337f7U, 0xbe06f63cfa94d834U, 0xdfb4f723193b01c5U,
  0x162eecd0f2332053U, 0xfbefd325c3d8ecdbU, 0xe0f4f0d0fa24f800U, 0x344af8bdc7c0143eU,
  0xfdc91903cdddcdbcU, 0x1d08deef0911e2c6U, 0x353e38f9b2eaf838U, 0xdbde3a10e8dfdfa0U,
  0x4fbf6d03f13e3cdU, 0x2b082fe3c3cf0445U, 0xdfbd14fd23168bc7U, 0xf81600f70cfa0e18U,
  0x332d220d2fa9381fU, 0xcfc112f157fba7e0U, 0x2c20e08528022442U, 0xffee221a2d81eee9U,
  0xe6bb24e1f90c40a6U, 0xf01ca7f418c5fa22U, 0x283e2ec6e9dde0e1U, 0xa1c04c4a07fcc0eeU,
  0x16d726f0e3bffacfU, 0x584e2f16d109fff3U, 0xc2855801e308118fU, 0x29f8d8e76428db4dU,
  0xb1717ecfcec23fdU, 0xdffb3f54b0f629e3U, 0xc0ce24b7ed1e924dU, 0x160f073c50f4aa92U,
  0xb1ffecf3f11f9fe0U, 0xdee07fe096c71bfaU, 0x3f8ffaa70429383U, 0x182f83c29a115030U,
  0x29dc26f987bfe8afU, 0x5417372d272a0dd2U, 0xadb0ef73a14d731U, 0x433813f64a191c11U,
  0xdab253581fd707e9U, 0x3e92cff148432c81U, 0xd51446eecc042835U, 0x26cdfc1614e323efU,
  0x16ac2498062c1ad6U, 0xa16ade0f7e51725U, 0x1b08e3e4caf4dbeaU, 0xedf01b1ea1f181eU,
  0xd30a2c0ae59bd3f7U, 0x921dd0efdf7f1f2U, 0x1a1b06f9bddfcbfbU, 0xc8c61cd117e0e4c1U,
  0x291be8e63afd13dcU, 0x3ce2f22f20e00c9U, 0xfddcf21724e0c4afU, 0x1125e808fff62bebU,
  0xfee41b24eb270aeaU, 0xeef1f9bb2517e121U, 0xf6ffde0c01faff1fU, 0xc5f1f3101104ef10U,
  0xe0de4e90d240809U, 0xfd11fbeae5effbfaU, 0xf6020416d3ee1ffbU, 0xd19a90ee40e0409U,
  0xfb091d07acd5f83aU, 0xf6e40214e3ffdbfcU, 0xd04dbf8e8f7ebf8U, 0xe372914810ef30aU,
  0xc404e0192c0f9df7U, 0xbdf1eb000923f1e8U, 0x9e31210a40ee7fcU, 0xa0d81c2d30168b0fU,
  0xf2f6cbf1fb172412U, 0xd723d8c1cf06ed24U, 0x9019fee6f80cab2cU, 0x322fafd506274125U,
  0xf8d2f60ddafcf90dU, 0xf011e618e705ff1cU, 0xeacbf3fe0d0ff4feU, 0xe8f1d7c90bfe1319U,
  0x22e2f4de2a1840e1U, 0xbf304eae30e0c32U, 0xc1c280138e0fb26U, 0x33ec3ef92bed2b00U,
  0xe006d414e6dcdf0aU, 0x7b00e419815e1aeU, 0xd4fc2fb52845afcbU, 0xd7e903f829e52f21U,
  0xdbdb9df83422b1ceU, 0x3812f1c781125011U, 0xdaf00b15d1a1af20U, 0xaccd03b1dc1fbebeU,
  0x3e19b1da07b60df9U, 0xeac7b0ae0e202ceU, 0xf410efc2780ac9ffU, 0x3fce0cde2fe480aU,
  0x29f0fe1d0b19fef4U, 0xefee901e414042bU, 0xb3ec160af8f4eb05U, 0x1521fb2bdfe0fd04U,
  0x1d2d24fdfffd172eU, 0x921cff0de0e7cf1eU, 0xfccdcaf0ddd3d1f4U, 0x24150f1a02022a22U,
  0x9d200d27ddf3b3f7U, 0xd2ccb4facdceee01U, 0x4134fedfc51de49bU, 0xb0b6311c1407d9c1U,
  0xd2fb810d3219e808U, 0xef8ae1f9cefde9acU, 0xd9c921611b07eb1dU, 0xf1fed0cb16251404U,
  0xa9bfbccfb719edf4U, 0xbf02c8b9c3d8d719U, 0x15000000005U, 0xfffffd4f0000034fU,
  0x1c9fffffcdbU, 0x35b000000baU, 0x12dfffffe43U, 0x67efffffe43U,
  0x1d00000195U, 0x3f000000c1U, 0x3cb1e5fdbc08d84dU, 0x3cdaf3ae3dd787dfU,
  0xbe183d6fbddaf3aeU, 0x3dc30107bd765224U, 0xbd99f356bdcd4473U, 0xbba436c23d931bb9U,
  0x3ba436c2bd8fafeaU, 0xbdb1e5fdbd168788U, 0xbe1f150c3d6f7a86U, 0xbe20caf4be541c11U,
  0xbc7652243cb1e5fdU, 0xbc88d84d3dae7a2fU, 0x3d6f7a86bba436c2U, 0xbdf2e6553e072265U,
  0x3da0caf4bd31e5fdU, 0x3d8fafea3da7a291U, 0x3da7a2913c968788U, 0x3db551cc3d541c11U,
  0xbcdaf3aebd466cd6U, 0x3d2b0e603da0caf4U, 0xbd8200afbd6f7a86U, 0xbd8c441b3bdaf3aeU,
  0xbca436c23d168788U, 0xbdc9d8a43bdaf3aeU, 0xbccd44733ba436c2U, 0x3adaf3aebcb1e5fdU,
  0x3d99f356bc2436c2U, 0x3b5af3aebd68a2e9U, 0xbce8a2e93d88d84dU, 0x3dc30107bb5af3aeU,
  0x3dbf95383d68a2e9U, 0x3e0dfa03bc3f9538U, 0xbdef7a86bc968788U, 0xbd466cd6be19f356U,
  0xbc08d84dbadaf3aeU, 0xbca436c23ce8a2e9U, 0x3c2436c2bd2436c2U, 0x3d68a2e9bd168788U,
  0xbd61cb4b00000000U, 0x3e25ecaa3e183d6fU, 0xbe2280dbbe4d4473U, 0xbdec0eb8bd2b0e60U,
  0x3adaf3aebd4d4473U, 0x3c08d84d3ce8a2e9U, 0xbd61cb4bbc5af3aeU, 0xbd61cb4bbd6f7a86U,
  0xbe004ac83cb1e5fdU, 0x3adaf3aebdd0b042U, 0x3b5af3aebd8c441bU, 0x3de5371a3dde5f7dU,
  0x3d541c113d7d29c1U, 0x3d5af3ae3c765224U, 0x3d9687883e27a291U, 0xbadaf3ae3c2436c2U,
  0x3db551cc3e19f356U, 0x3df9bdf23e0c441bU, 0x3da0caf43ba436c2U, 0x3c2436c2bc968788U,
  0x3bdaf3aebd2b0e60U, 0x3cb1e5fd3d8fafeaU, 0x3b5af3ae3c08d84dU, 0xbce8a2e93dab0e60U,
  0xbd9d5f253d2b0e60U, 0xbdf2e655bdc9d8a4U, 0x3d7d29c13d7d29c1U, 0xbbdaf3aebc5af3aeU,
  0xbc5af3aebd765224U, 0xbda0caf43ce8a2e9U, 0xbda7a2913d8fafeaU, 0xbe44b6eebd765224U,
  0xbbdaf3ae3d4d4473U, 0xbdef7a86bdab0e60U, 0x3dc66cd63df2e655U, 0x3da7a2913d8fafeaU,
  0x3cdaf3aebd8fafeaU, 0xbba436c23da436c2U, 0xbce8a2e93c968788U, 0xbdc66cd63ccd4473U,
  0xbd68a2e93cb1e5fdU, 0xbd765224bd2436c2U, 0xbcb1e5fdbe31e5fdU, 0xbd931bb93ccd4473U,
  0x3d61cb4b3d68a2e9U, 0xbc08d84d3d38bd9bU, 0xbd2436c23dbc296aU, 0xbbdaf3aebd31e5fdU,
  0xbadaf3ae3d856c7eU, 0xbd541c11be1d5f25U, 0x3cf65224bc5af3aeU, 0xbc88d84d3d8c441bU,
  0x3d38bd9b3da7a291U, 0xbd38bd9b3d2b0e60U, 0x3ccd44733cdaf3aeU, 0x3adaf3ae3dc30107U,
  0x3e25ecaa3dcd4473U, 0x3e20caf43d765224U, 0x3de5371a3d61cb4bU, 0x3e593dc73dfd29c1U,
  0xbbdaf3aebd1d5f25U, 0x3d541c11bc88d84dU, 0xbd9d5f25bdc9d8a4U, 0x3d2436c2bc765224U,
  0x3d1d5f253cb1e5fdU, 0xbdb8bd9bbd0fafeaU, 0xbcb1e5fdbd856c7eU, 0x3d1687883dec0eb8U,
  0x3cbf9538bc3f9538U, 0x3d968788bc968788U, 0xbc968788bca436c2U, 0xbd38bd9bbd0fafeaU,
  0xbe0dfa03bd3f9538U, 0xbe2e7a2fbdde5f7dU, 0x3d4d44733d931bb9U, 0x3cb1e5fd3cdaf3aeU,
  0x3dae7a2f3d6f7a86U, 0xbba436c23dd787dfU, 0xbd7652243bdaf3aeU, 0xbb5af3ae3d6f7a86U,
  0x3d68a2e93e0dfa03U, 0xbe466cd63cdaf3aeU, 0x3d61cb4bbe1165d2U, 0x3b5af3ae3c968788U,
  0x3cb1e5fd3d168788U, 0x3d88d84d3c08d84dU, 0xbba436c23de5371aU, 0x3d99f3563d168788U,
  0xbc88d84dbdef7a86U, 0x3ddaf3ae3d88d84dU, 0xbc87ff913db18da8U, 0x3cb554c13c71c657U,
  0x3c971bf6bd6a3824U, 0x3e09e31e3d9354ddU, 0xbe6fe2cabdc47127U, 0x3d71c657bddb1bbfU,
  0xbd9354ddbd9ae310U, 0xbd1eaa293af1c657U, 0xbdd754a5be208db6U, 0x3df1c6573d79548aU,
  0xbc3554c1bda6385cU, 0x3e0bc6aa3c87ff91U, 0xbd87ff91bdfd1ba3U, 0xbd8438783d8f8dc4U,
  0xbe00715ebe061c04U, 0x3d26385cbd447127U, 0xbcb554c1bd8f8dc4U, 0x3e0daa373dcfc673U,
  0xbc971bf6be281be8U, 0x3d971bf63dfd1ba3U, 0xbdb554c1bd2dc68fU, 0x3af1c657bc171bf6U,
  0x3af1c657bd0f8dc4U, 0xbd9ae310bd447127U, 0x3d538d8c3d87ff91U, 0xbd0f8dc43da6385cU,
  0xbc971bf6bbb554c1U, 0xbd5b1bbfbcb554c1U, 0x3e0438783d26385cU, 0x3db554c1baf1c657U,
  0x3dd754a53c171bf6U, 0x3af1c657bc87ff91U, 0xbaf1c657bd71c657U, 0x3cb554c13da9ff75U,
  0x3de2a9f23d79548aU, 0xbd5b1bbf3e0bc6aaU, 0x3dbce2f4bc971bf6U, 0x3df1c657bd447127U,
  0xbdcbff59bd4bff59U, 0x3dfd1ba33e09e31eU, 0x3dadc68f3d9eaa29U, 0x3d1eaa293de2a9f2U,
  0x3b71c657bd26385cU, 0x3d971bf63d07ff91U, 0x3d8f8dc4bd00715eU, 0xbc87ff913da27142U,
  0x3db554c13e171bf6U, 0x3c87ff913d3ce2f4U, 0xbdfd1ba3bdf9548aU, 0x3d9ae310bd971bf6U,
  0x3ddb1bbf3df58d70U, 0x3cf1c657bdbce2f4U, 0x3d9354dd3d6a3824U, 0x3df1c65700000000U,
  0x3db18da8U, 0x3d2dc68fbd1eaa29U, 0xbd971bf6be171bf6U, 0x3e07ff91bd71c657U,
  0xbd80715e3af1c657U, 0x3db91bdb3b71c657U, 0x3d87ff91bd538d8cU, 0xbd971bf63ce2a9f2U,
  0xbd6a3824bbb554c1U, 0x3c3554c1bddb1bbfU, 0xbdea3824be4bff59U, 0x3da27142bc3554c1U,
  0xbd80715ebd8f8dc4U, 0x3dc0aa0dbc171bf6U, 0xbda6385cbd3554c1U, 0xbdb91bdbbd2dc68fU,
  0xbdbce2f4bbb554c1U, 0xbe318da8bdf9548aU, 0xbdb554c1bd3ce2f4U, 0x3da6385c3c87ff91U,
  0xbdd38d8cbe0daa37U, 0x3d9ae3103db91bdbU, 0xbce2a9f2bd843878U, 0x3cb554c1bc71c657U,
  0x3cd38d8cbd6a3824U, 0x3cd38d8c3d5b1bbfU, 0xbd971bf6bd843878U, 0x3d3554c1bd4bff59U,
  0xbcf1c657bd87ff91U, 0xbc71c6573d4bff59U, 0x3d9354ddbd07ff91U, 0x3d71c6573d171bf6U,
  0x3dd754a53e3ec681U, 0xbda6385c3d62a9f2U, 0xbd80715ebcb554c1U, 0x3de2a9f23d843878U,
  0xbd5b1bbfbd6a3824U, 0x3e2be3023bb554c1U, 0xbca6385cbd8f8dc4U, 0xbd9ae3103ca6385cU,
  0x3d8f8dc43d6a3824U, 0x3dedff3e3c87ff91U, 0xbce2a9f2bdf58d70U, 0xbc171bf63d71c657U,
  0xbd6a3824bcc47127U, 0x3de2a9f23db18da8U, 0xbd843878bd6a3824U, 0x3c538d8cbc171bf6U,
  0xbd3ce2f4bcb554c1U, 0xbda6385c3d538d8cU, 0x3c171bf6bcc47127U, 0x3cb554c1bc971bf6U,
  0x3d9354dd3d447127U, 0x3dea38243c538d8cU, 0x3dedff3ebc538d8cU, 0x3dcbff593e0bc6aaU,
  0xbd171bf63d447127U, 0x3bb554c1bb71c657U, 0x3d87ff913dbce2f4U, 0x3e3ce2f43da27142U,
  0xbe4a1bcdbd62a9f2U, 0x3dc47127bd843878U, 0x3bb554c1bc171bf6U, 0xbe0bc6aabdf9548aU,
  0xbd1eaa29be0daa37U, 0xbdf1c6573da27142U, 0x3d6a38243d9354ddU, 0x3d2dc68f3cb554c1U,
  0x3c87ff913c71c657U, 0xbcd38d8c3c538d8cU, 0x3d07ff913d1eaa29U, 0x3bf1c657bc71c657U,
  0xbd3554c1bddb1bbfU, 0x3ddee2d83c971bf6U, 0xbdba29e2bca09c9bU, 0xbd70eae9bded4471U,
  0x3d194fab3d8368dcU, 0xbe1202bcbe08e290U, 0x3e32dcf33e0368dcU, 0xbbaf367b3c8368dcU,
  0x3d209c9b3d27e98bU, 0x3e053c18bd699df9U, 0x3b699df93d3dd05aU, 0xbe34b02fbe1b22e7U,
  0x3ca09c9b3d699df9U, 0xbd8ab5ccbd95a934U, 0xbce99df9bda09c9bU, 0x3d870f54bd8368dcU,
  0x3c2f367b3c699df9U, 0xbc9202bcbda44313U, 0x3cbdd05abdb2dcf3U, 0xbe15a934bc8368dcU,
  0xbd27e98bbcaf367bU, 0xbdbdd05abd9cf623U, 0xbce99df93dba29e2U, 0x3ca09c9bbcf837d9U,
  0x3d6251093d1202bcU, 0x3df837d93c9202bcU, 0xbcbdd05a3d53b72aU, 0x3e226fd73baf367bU,
  0x3ae99df93d1202bcU, 0x3e26164f3d209c9bU, 0xbd8e5c44bd699df9U, 0x3d451d4abd209c9bU,
  0xbd194fabbc2f367bU, 0xbda7e98b3ae99df9U, 0x3b699df93daf367bU, 0x3da09c9b3c8368dcU,
  0x3c8368dcbd0ab5ccU, 0x3ddb0419bd8368dcU, 0x3ae99df93d1202bcU, 0xbdc8c3c23d8368dcU,
  0x3df491613ca09c9bU, 0xbdba29e2bdf0eae9U, 0xbd699df9bdd3b72aU, 0xbce99df9be0368dcU,
  0xbd1202bc3df0eae9U, 0x3dc51d4a3d870f54U, 0xbd70eae93e0c8908U, 0x3d994fab3d451d4aU,
  0xbcdb04193d36836bU, 0x3da09c9b3cdb0419U, 0x3c2f367b3d451d4aU, 0x3d4c6a3a3dba29e2U,
  0xbd9202bcbcaf367bU, 0xbd70eae93d27e98bU, 0xbdba29e2bd70eae9U, 0xbda44313bddeaa91U,
  0xbd8e5c4400000000U, 0xbdba29e2be2b9003U, 0x3baf367b3da44313U, 0xbd209c9b3d53b72aU,
  0x3d1202bcbccc6a3aU, 0x3d53b72a3be99df9U, 0x3de25109bcdb0419U, 0x3ddb04193d5b0419U,
  0x3d53b72a3d53b72aU, 0x3dfbde503e1202bcU, 0xbbe99df93d209c9bU, 0x3cdb04193d53b72aU,
  0x3d451d4a3dbdd05aU, 0xbde25109bd8ab5ccU, 0x3d95a9343cbdd05aU, 0xbdb2dcf33d53b72aU,
  0xbd8ab5ccbd2f367bU, 0x3d1202bcbc699df9U, 0xbcbdd05abdc176d2U, 0xbe08e290bdd010b2U,
  0x3da09c9b3cbdd05aU, 0x3ccc6a3abcdb0419U, 0x3db2dcf33dab9003U, 0x3ca09c9bbccc6a3aU,
  0x3b699df9bc1202bcU, 0x3d36836b3c699df9U, 0x3d9202bc3dcc6a3aU, 0x3b699df93be99df9U,
  0x3df491613e13d5f8U, 0x3ce99df93d8ab5ccU, 0x3da09c9b3d27e98bU, 0x3d53b72abd994fabU,
  0xbc8368dc3cdb0419U, 0x3d699df9bce99df9U, 0xbbaf367bbd53b72aU, 0xbe0195a03ce99df9U,
  0xbd4c6a3abd0368dcU, 0xbc699df93c4c6a3aU, 0x3dc51d4abd7f84c8U, 0xbd2f367bbd451d4aU,
  0xbcdb0419bdab9003U, 0xbdf49161bdba29e2U, 0x3c9202bcbb699df9U, 0x3db6836b3ccc6a3aU,
  0x3baf367bbd994fabU, 0x3d699df9bcf837d9U, 0x3da7e98b3ae99df9U, 0x3d7f84c83caf367bU,
  0x3d1202bc3d36836bU, 0xbd0368dcbd209c9bU, 0x3d209c9b3d0ab5ccU, 0x3db6836b3ce99df9U,
  0x3d0368dcbd0368dcU, 0x3cbdd05abc8368dcU, 0xbccc6a3abcf837d9U, 0x3daf367b3c2f367bU,
  0x3d994fabbcaf367bU, 0x3e0368dc3d95a934U, 0x3cdb0419bc9202bcU, 0xbe67cabd3c699df9U,
  0x3cf837d9bc4c6a3aU, 0xbdf837d9bd699df9U, 0x3db2dcf3bd36836bU, 0xbd1202bcbd95a934U,
  0xbda44313bd95a934U, 0x3d451d4abe2f367bU, 0xbc4c6a3a3caf367bU, 0xbbe99df9bd625109U,
  0xbdaf367b3e3109b7U, 0xbd7f84c83d9202bcU, 0x3d0ab5cc3ae99df9U, 0xbb699df9bbe99df9U,
  0x3d95a9343d8368dcU, 0x3c8368dc3c2f367bU, 0x3d007a9bbd0e3e99U, 0xbd6a03e3bc807a9bU,
  0x3b92d543bd952098U, 0xbcf7c7e1bd807a9bU, 0xbcf7c7e1bc6e9a8dU, 0x3c5c3fe43d49e53cU,
  0xbd0e3e99bc007a9bU, 0x3ce56d39bdb78a94U, 0xbd92d543bcee9a8dU, 0xbd656d39bc807a9bU,
  0xbda52febbcae5d40U, 0x3d378a943cb78a94U, 0x3d3c213ebd7c5e8bU, 0xbdae5d40bd6e9a8dU,
  0x3bb78a943d209941U, 0xbd851145bcd31290U, 0xbd7c5e8bbd3c213eU, 0xbb92d5433c9c0297U,
  0x3d32f3eabd60d68fU, 0xbd32f3ea3cc0b7e8U, 0xbd89a7ef3d09a7efU, 0x3bdc3fe4bd007a9bU,
  0xbd99b742bdb0a895U, 0x3c49e53cbd99b742U, 0xbd1c0297bd733137U, 0xbd5c3fe4bcf7c7e1U,
  0xba92d543ba92d543U, 0xbd82c5f0bc9c0297U, 0xbc252febbc378a94U, 0x3b92d543U,
  0xbd2e5d40bd976bedU, 0xbda9c6953cc9e53cU, 0x3c89a7ef3cf7c7e1U, 0xbce56d393bdc3fe4U,
  0xbd6e9a8dbc5c3fe4U, 0x3cdc3fe4be051145U, 0xbdcc3091bd875c9aU, 0x3b92d543bd32f3eaU,
  0xbd733137bd12d543U, 0xbc807a9b3ca52febU, 0x3da099413d007a9bU, 0x3b5c3fe4U,
  0xbdfc5e8b3cc0b7e8U, 0xba92d5433c378a94U, 0xbd6e9a8d3d40b7e8U, 0xbd807a9b3c9c0297U,
  0x3d09a7ef3cc9e53cU, 0xbd3c213e3d807a9bU, 0xbda2e4963d09a7efU, 0x3c807a9bbd49e53cU,
  0xbd656d39bd09a7efU, 0xbd378a94bdae5d40U, 0x3cb78a94bc378a94U, 0x3d656d39U,
  0xbd29c695bc89a7efU, 0xbcf7c7e13dea03e3U, 0xbdbe6c93bd32f3eaU, 0xbc89a7efbdd31290U,
  0x3bb78a94bcb78a94U, 0x3c378a943a92d543U, 0xbd09a7efbd7c5e8bU, 0x3c378a943b5c3fe4U,
  0xbd9520983d252febU, 0xbd5c3fe4bd8e3e99U, 0x3cc0b7e8bc807a9bU, 0x3c6e9a8d3d49e53cU,
  0xbc92d543bd378a94U, 0xbc9c02973c5c3fe4U, 0xbd29c695bd32f3eaU, 0xbd851145be11af98U,
  0xbd2e5d403d2e5d40U, 0xbd6e9a8d3c49e53cU, 0x3c5c3fe43c6e9a8dU, 0x3cc0b7e83d6a03e3U,
  0xbd007a9b3b12d543U, 0xbd32f3eabd09a7efU, 0xbd6a03e33b92d543U, 0xbd89a7efbc807a9bU,
  0xbcf7c7e13c49e53cU, 0xbce56d39bd92d543U, 0xbcc9e53cbd89a7efU, 0x3d32f3eabd9089eeU,
  0xbc92d543bdb78a94U, 0xbd29c6953d209941U, 0x3d176bed3cc9e53cU, 0xbcb78a94bcee9a8dU,
  0x3c807a9b3cf7c7e1U, 0xbd89a7ef3d29c695U, 0xbdc3033dbd3c213eU, 0xbca52febbda9c695U,
  0x3c378a94bd733137U, 0xbde56d39bd57a93aU, 0xbd09a7efbd4e7be6U, 0xbd5312903ca52febU,
  0xbd4e7be6bcae5d40U, 0xbcee9a8dbd952098U, 0x3c89a7efbb12d543U, 0xbc49e53cbc6e9a8dU,
  0xbd656d39bdb78a94U, 0xbd9c02973cf7c7e1U, 0xbc49e53c3c49e53cU, 0x3d007a9b3d7c5e8bU,
  0xbdc799e7bd851145U, 0xbdb0a895bcee9a8dU, 0xbc9c0297bb92d543U, 0xbd656d39bbb78a94U,
  0xbd89a7efbd9e4decU, 0x3cc9e53cbd875c9aU, 0xbca52febbd976bedU, 0xbcc0b7e83c007a9bU,
  0x3bb78a943cb78a94U, 0x3d82c5f03d851145U, 0xbd7c5e8bbd4e7be6U, 0xbc378a94bdf0e5e2U,
  0x3d5312903d29c695U, 0xbda2e496bd99b742U, 0xbdcc30913d49e53cU, 0xbbb78a94bdce7be6U,
  0xbd378a94bd976bedU, 0x3d82c5f0bc49e53cU, 0xbd99b742bce56d39U, 0x3d9e4dec3ca52febU,
  0xbc6e9a8dbd60d68fU, 0xbd09a7efbd40b7e8U, 0x3d807a9b3cf7c7e1U, 0xbd5312903cd31290U,
  0x3cc9e53c3bdc3fe4U, 0xbc378a94bbdc3fe4U, 0x3d592f243b9df3bdU, 0xbd975eeabd630e5fU,
  0xbd3b91703ceced9bU, 0xbd3b91703c975eeaU, 0xbd1aa953bc384707U, 0x3c1df3bd3d06eadcU,
  0x3ceced9b3cdfc3f6U, 0xbd83a073bd9f98f1U, 0xbd213e26bd5c798dU, 0x3d03a0733c384707U,
  0x3c975eeabd213e26U, 0x3cdfc3f6bca4888fU, 0x3c8a3545bdb84707U, 0xbd31b234bb1df3bdU,
  0x3ad29a513d27d2f9U, 0xbd7d61a9bd24888fU, 0x3b529a51bdacc296U, 0xbd975eea3c90ca18U,
  0xbd1414813ad29a51U, 0xbd27d2f93d10ca18U, 0x3d0d7fae3d31b234U, 0x3cbedbd93cd29a51U,
  0xbce658c9bb83a073U, 0xbce658c9bda62dc4U, 0x3d03a073bcc570acU, 0x3bd29a51bd27d2f9U,
  0x3beced9b3c03a073U, 0xbd27d2f9bc384707U, 0xbd34fc9ebc975eeaU, 0xbbeced9b3d703804U,
  0xbda2e35bbd0a3545U, 0xbc03a0733d6658c9U, 0xbd175eea3c8a3545U, 0xbd06eadcbda62dc4U,
  0x3c83a073bd3b9170U, 0xbd10ca18bca4888fU, 0x3cfa17403d0a3545U, 0xbd889011bd99041fU,
  0xbd24888fbc384707U, 0xbc5fc3f63c529a51U, 0xbd1aa9533c90ca18U, 0xbd0a3545bb83a073U,
  0xbd2e67cbbd7d61a9U, 0x3ce658c93d48bb15U, 0x3bd29a51bb9df3bdU, 0x3cbedbd93d0a3545U,
  0xbda62dc43d06eadcU, 0xbb9df3bdbcb1b234U, 0xbda9782dbd76ccd7U, 0x3d0a3545bcc570acU,
  0xbcf3826ebd76ccd7U, 0xbd529a51bd4f4fe8U, 0x3d31b234bd3edbd9U, 0xbd0a35453d3edbd9U,
  0xbd81fb3ebc9df3bdU, 0xbd95b9b63c03a073U, 0xbd6ced9bbd529a51U, 0x3c7a1740bccc057eU,
  0xbb83a073bd6658c9U, 0xbd213e263d005609U, 0xbb83a073bc10ca18U, 0x3cbedbd9bb9df3bdU,
  0xbd7a17403b9df3bdU, 0x3ca4888f3d03a073U, 0x3cd29a51bcf3826eU, 0x3bd29a51bcdfc3f6U,
  0x3d03a073bd81fb3eU, 0xbd2e67cb3d529a51U, 0xbd630e5fbd975eeaU, 0x3d6658c9bd8545a7U,
  0xbd8545a7bcb1b234U, 0xbd384707bc529a51U, 0xbda7d2f9bd48bb15U, 0xbd99041fbb529a51U,
  0xbb9df3bdbcdfc3f6U, 0x3a529a51bd422643U, 0x3d10ca183beced9bU, 0xbd90ca183ceced9bU,
  0xbd422643bd73826eU, 0x3b529a51bd7d61a9U, 0xbd76ccd7bd73826eU, 0x3c3847073c1df3bdU,
  0xbda7d2f9bceced9bU, 0x3c10ca18bb83a073U, 0xbccc057e3d422643U, 0xbda13e263c529a51U,
  0xbdbb91703bd29a51U, 0x3d005609bd8a3545U, 0x3c83a073bd4f4fe8U, 0x3cd92f24bd1df3bdU,
  0xbc03a0733d0d7faeU, 0xbd592f243d1df3bdU, 0x3c1df3bdbd5c798dU, 0xbd95b9b6bb83a073U,
  0xbd8056093cb1b234U, 0x3ad29a51bd2e67cbU, 0xbdd0f51cbd9aa953U, 0x3c1df3bdbceced9bU,
  0xbcfa17403b1df3bdU, 0xbd384707bdbd36a5U, 0xbdb1b2343cd29a51U, 0x3d4c057e3cdfc3f6U,
  0xbd926f4c3d9aa953U, 0xbd1df3bdbd1aa953U, 0xbd90ca183cb84707U, 0xbd529a51bd99041fU,
  0x3cb847073ceced9bU, 0x3d0a35453cd92f24U, 0xbd529a51bd5fc3f6U, 0x3c03a073bd5fc3f6U,
  0xbbd29a51bc2b1d62U, 0xbbd29a51bd7d61a9U, 0xbd31b234bd7a1740U, 0xbbeced9bbd141481U,
  0x3ceced9bbdbd36a5U, 0x3bb84707bd83a073U, 0xbad29a513d3b9170U, 0x3d1414813d5fc3f6U,
  0xbb9df3bd3d384707U, 0xbd03a0733c90ca18U, 0x3c10ca18bd34fc9eU, 0xbceced9b3b83a073U,
  0xbc03a073bd86eadcU, 0xbd55e4ba3cab1d62U, 0x3ad29a513c2b1d62U, 0xbd2e67cbbdb1b234U,
  0xbd384707bce658c9U, 0x3cbedbd93ccc057eU, 0x3cc004d93d34048bU, 0x3dd80574bda20417U,
  0xbdea05e800000000U, 0x3e0d038fbc4004d9U, 0xbd28043ebdba04b2U, 0x3d9603cabc70060fU,
  0xbcf0060fbdde059bU, 0xbe040355bde405c2U, 0x3d1c03f0bdc004d9U, 0x3dde059b3d4004d9U,
  0x3d580574be040355U, 0x3e2e04653dae0465U, 0x3d9603cabdae0465U, 0xbe3d04c63d1c03f0U,
  0xbc70060fbd4004d9U, 0x3d1003a33d9603caU, 0x3d7c065d3e220417U, 0x3e5e059b3ca8043eU,
  0x3cf0060f3d7c065dU, 0x3dc004d93e010342U, 0x3d4c0527bcc004d9U, 0xbcc004d93e0a037cU,
  0xbd34048bbdb4048bU, 0xbd1003a3bd28043eU, 0xbd8a037c3c9003a3U, 0xbebe84cfbd840355U,
  0xbd34048bbd70060fU, 0xbe3a04b2bd7c065dU, 0x3dae04653d040355U, 0x3d0403553bc004d9U,
  0x3c70060f3cf0060fU, 0x3d28043e3d4004d9U, 0xbd5805743ca8043eU, 0xbe1c03f0bd6405c2U,
  0x3dae0465bd1c03f0U, 0xbdea05e83d4c0527U, 0x3d9603ca3d8a037cU, 0x3cc004d9bdb4048bU,
  0xbe0a037cbd1003a3U, 0x3e1603ca3db4048bU, 0x3d5805743e010342U, 0x3c9003a33d580574U,
  0xbdb4048b3d040355U, 0xbd6405c23cd80574U, 0x3c4004d9bd70060fU, 0xbe25042a3d1c03f0U,
  0xbdb4048bbc4004d9U, 0xbd34048bbd8a037cU, 0xbdde059bbd8a037cU, 0xbd580574bd4c0527U,
  0xbd4c05273df60636U, 0x3de405c23cd80574U, 0x3b4004d93e1f0404U, 0x3e1c03f03d28043eU,
  0x3d5805743d8a037cU, 0x3dd2054d3da8043eU, 0x3d1c03f0bda8043eU, 0x3c70060f00000000U,
  0x3b4004d9bda20417U, 0x3c9003a300000000U, 0xbc4004d9bc70060fU, 0x3b4004d9bd580574U,
  0x3b4004d93d9603caU, 0x3bc004d9bd28043eU, 0xbc4004d93c4004d9U, 0x3dba04b23d28043eU,
  0x3c4004d9bdba04b2U, 0x3db4048b3dd80574U, 0xbcc004d9U, 0x3e1f04043d6405c2U,
  0x3cf0060f3dc60500U, 0xbd840355bd580574U, 0x3dc004d93d8a037cU, 0xbcf0060f3d34048bU,
  0x3cc004d93e070369U, 0xbc70060fbc70060fU, 0x3c4004d9bd9003a3U, 0xbd1c03f03d040355U,
  0xbdba04b2bcd80574U, 0xbb4004d9bd70060fU, 0xbd8403553c4004d9U, 0xbd4c0527bc9003a3U,
  0xbdc605003c1003a3U, 0xbd7c065d3d1003a3U, 0x3d6405c23ca8043eU, 0xbbc004d9bd1003a3U,
  0x3d8a037c3c1003a3U, 0xbda20417bd1003a3U, 0xbb4004d9bbc004d9U, 0x3d6405c23c4004d9U,
  0x3cc004d93c9003a3U, 0x3de405c23dc004d9U, 0x3b4004d93ca8043eU, 0x3cc004d93dfc065dU,
  0x3e2204173d8a037cU, 0x3e37049f3e040355U, 0xbd580574bd28043eU, 0xbc9003a3be040355U,
  0xbd580574bd28043eU, 0x3dc004d93c4004d9U, 0xbb4004d9bd4004d9U, 0x3dc60500bc9003a3U,
  0xbd4004d93d040355U, 0x3d1003a33b4004d9U, 0x3d5805743d70060fU, 0x3cc004d9bb4004d9U,
  0xbdb4048b3d1003a3U, 0xbc4004d93b4004d9U, 0xbbc004d93d28043eU, 0xbc9003a3bd6405c2U,
  0xbd9c03f0bcf0060fU, 0xbe010342bde405c2U, 0xbd6405c2bd7c065dU, 0x3e5505613d1c03f0U,
  0xbc1003a33c9003a3U, 0x3e3104783dc60500U, 0xbd9603ca3cc004d9U, 0xbd34048b3d70060fU,
  0x3da8043e3cd80574U, 0xbdd2054dbc1003a3U, 0xbdf0060f3d1c03f0U, 0xbd840355bdf0060fU,
  0xbd580574bda20417U, 0x3c9003a3bcf0060fU, 0xbd7c065dbda20417U, 0x3db4048bbdfc065dU,
  0xbe310478bdde059bU, 0x3de405c2bd7c065dU, 0x3d1f871fbc782786U, 0x3dd045be3dd4b42aU,
  0xbcf82786be3e8c10U, 0x3cd4b42a3d1f871fU, 0xbdfc95f1be3140cdU, 0xbb8dcd713d1f871fU,
  0xbc782786bcf82786U, 0x3c54b42abcb140cdU, 0xbd3140cd3dba1da4U, 0xbd84f09abd3a1da4U,
  0xbc0dcd71bcd4b42aU, 0xbc3140cdbb0dcd71U, 0x3db5af393db5af39U, 0xbcd4b42a3c0dcd71U,
  0x3d96aa483c8dcd71U, 0x3d2863f63db140cdU, 0x3b0dcd713db5af39U, 0x3d6f4aaf3da3f58bU,
  0xbcd4b42a3bd4b42aU, 0x3d96aa483d3140cdU, 0xbb0dcd71bd04f09aU, 0x3c3140cd3d782786U,
  0x3d54b42a3c9f871fU, 0xbc54b42a3d0dcd71U, 0xbcb140cdbd0dcd71U, 0x3e0dcd713dc2fa7bU,
  0xbc0dcd713db5af39U, 0x3cb140cd3d3a1da4U, 0x3dd4b42a3d5d9101U, 0xbd7827863d16aa48U,
  0xbcc2fa7b3dacd262U, 0x3cc2fa7b3c0dcd71U, 0xbe0727d0be18e17eU, 0xbd6f4aafbe123bddU,
  0x3d4bd7523b8dcd71U, 0x3d96aa483b8dcd71U, 0xbb8dcd71bc3140cdU, 0xbc0dcd713cd4b42aU,
  0x3d42fa7b3c8dcd71U, 0x3cc2fa7b3d80822eU, 0xbdb140cdbe1004a7U, 0xbd3a1da4bc8dcd71U,
  0x3d6f4aafbe54b42aU, 0x3d782786bd2863f6U, 0x3b0dcd71be782786U, 0x3b0dcd71bd3a1da4U,
  0xbdc768e7be02b964U, 0x3cc2fa7b3c54b42aU, 0x3e0727d03d6f4aafU, 0x3d2863f63d1f871fU,
  0x3e40c3463dc2fa7bU, 0xbd80822e3d04f09aU, 0x3e21be553dacd262U, 0xbc7827863d9f871fU,
  0x3c0dcd713c9f871fU, 0x3e23f58b3e147312U, 0xbcf82786bc54b42aU, 0x3d4bd7523d84f09aU,
  0xbd2863f63c3140cdU, 0x3c0dcd713d54b42aU, 0xbd923bdd3cf82786U, 0xbd54b42a3cb140cdU,
  0xbd04f09a3c3140cdU, 0x3d16aa48bcb140cdU, 0x3d80822e3d1f871fU, 0xbd7827863da863f6U,
  0x3cc2fa7b3d9f871fU, 0x3d96aa483c3140cdU, 0xbcb140cd3df82786U, 0xbcb140cd3d5d9101U,
  0xbbd4b42a3e1f871fU, 0x3cd4b42a3db140cdU, 0x3d5d91013db140cdU, 0x3d5d91013d895f05U,
  0x3b0dcd713c9f871fU, 0x3dd4b42a3bd4b42aU, 0xbd54b42abc54b42aU, 0x3d54b42abd04f09aU,
  0x3d923bddbd3140cdU, 0xbc8dcd71bd96aa48U, 0xbd782786be49a01dU, 0xbcb140cdbcd4b42aU,
  0xbdc768e7be0727d0U, 0xbc9f871fbd3140cdU, 0xbd923bdd3b0dcd71U, 0x3db5af393cf82786U,
  0xbdc768e7bce66dd8U, 0x3bd4b42a3c3140cdU, 0x3b8dcd713dc768e7U, 0xbc54b42abcf82786U,
  0x3cf827863d0dcd71U, 0xbcc2fa7bbcf82786U, 0x3d8dcd713d9b18b4U, 0xbb8dcd713d6f4aafU,
  0x3db140cd3dd4b42aU, 0x3dd4b42a3d4bd752U, 0x3e2863f63e2cd262U, 0x3e54b42a3e5d9101U,
  0x3cf827863d9b18b4U, 0xbc9f871fbce66dd8U, 0xbd9b18b43d4bd752U, 0x3d3140cdbc9f871fU,
  0x3d9f871fbb0dcd71U, 0x3d80822ebd04f09aU, 0x3dba1da4bd80822eU, 0x3c9f871f3d782786U,
  0x3ce66dd8bcb140cdU, 0xbb0dcd713dd4b42aU, 0x3ce66dd8bd923bddU, 0xbc8dcd713b8dcd71U,
  0xbd04f09abcb140cdU, 0xbd3a1da4bd666dd8U, 0x3ddd91013dc768e7U, 0x3d80822e3c3140cdU,
  0x3d80822e3e21be55U, 0x3df827863d4bd752U, 0x3d9b18b43e4768e7U, 0x3d6f4aaf3d42fa7bU,
  0x3deadc433e1f871fU, 0x3deadc433cc2fa7bU, 0x3d04f09abe8cb1d6U, 0xbbd4b42a3cc2fa7bU,
  0x3cf82786be56eb5fU, 0xbd42fa7b3d1f871fU, 0xbce66dd8bd2863f6U, 0xbb0dcd71bd16aa48U,
  0x3b0dcd71bc782786U, 0x3b0dcd7100000000U, 0xbd4b8b81bca0b181U, 0x3b2b68013cc63041U,
  0xbd0b4481bce0f881U, 0xbcd0e6c1bd3b79c1U, 0xbc008e01bd91f691U, 0x3d4b8b81bd5b9d41U,
  0xbd6e5ca13d0896e1U, 0xbd3370e1bd361e81U, 0x3a2b68013c0b4481U, 0x3d7e6e61bca0b181U,
  0xbd94a4313c909fc1U, 0xbcb0c341bb008e01U, 0x3c8b4481bc808e01U, 0xbd3e2761bc2b6801U,
  0xbd91f6913d0df221U, 0x3c15fb01bd0896e1U, 0x3d7913213d58efa1U, 0x3c361e81bc6baf01U,
  0xbcbb79c1bd73b7e1U, 0x3b564201bce0f881U, 0x3c0b4481bd3e2761U, 0x3d235f213cc63041U,
  0x3d463041bcab6801U, 0xbcebaf01bd8df221U, 0x3c15fb013c564201U, 0xbd81e4d13c9b5641U,
  0xbd833ba13cebaf01U, 0xbce653c1bd833ba1U, 0xbd8f48f1bd9e03e1U, 0x3d1e03e1bd9e03e1U,
  0xbcebaf013bd64201U, 0xbd934d61bc361e81U, 0xbd7e6e61bd8c9b51U, 0x3ca0b181bdaa1131U,
  0xbd2b6801bd30c341U, 0xbb2b6801bd95fb01U, 0xbd361e81bd008e01U, 0x3d7bc0c13ca0b181U,
  0x3d008e01bd564201U, 0x3c20b181bcc0d501U, 0xbc85e9413b2b6801U, 0x3d28ba613d48dde1U,
  0xbd6e5ca1bd6e5ca1U, 0x3ce0f881bd909fc1U, 0xbda35f21bd710a41U, 0xbd934d61bd4b8b81U,
  0x3cf66581bd85e941U, 0x3d109fc13d260cc1U, 0xbd4382a1bd3b79c1U, 0xbbab6801bcfbc0c1U,
  0xbb95fb01bd2b6801U, 0x3b808e01bd134d61U, 0xbc15fb013d934d61U, 0xbd20b1813d564201U,
  0xbd40d501bcf10a41U, 0xbcab6801bb564201U, 0xbd874011bd3e2761U, 0x3c20b181bcc63041U,
  0xbd849271bca0b181U, 0x3d260cc13d15fb01U, 0x3aab6801bd361e81U, 0xbd94a4313d1b5641U,
  0x3ce0f881bd85e941U, 0x3b2b6801bc361e81U, 0xbb95fb01bd15fb01U, 0xbd15fb013cbb79c1U,
  0xbd9b5641bd0896e1U, 0x3d008e01bce653c1U, 0xbbd64201bd710a41U, 0xbd15fb013d134d61U,
  0xbd3e2761bd0896e1U, 0xbc15fb01bd1e03e1U, 0x3c909fc1bd934d61U, 0xbc40d501bcb0c341U,
  0x3cf10a41bc361e81U, 0xbd791321bd361e81U, 0xbd50e6c1bd3b79c1U, 0x3d30c341bd18a8a1U,
  0xbd40d501bd60f881U, 0xbd3370e1bd808e01U, 0xbd3e2761bc15fb01U, 0x3c808e01bbab6801U,
  0x3c6baf01bc808e01U, 0x3d50e6c13bab6801U, 0x3d1e03e1bc60f881U, 0x3cbb79c13d2b6801U,
  0xbd6901613cd0e6c1U, 0x3c95fb01bd38cc21U, 0x3d4382a13ca60cc1U, 0xbc85e941bc6baf01U,
  0xbbab68013d20b181U, 0xbd1b56413d38cc21U, 0xbc766581bcfbc0c1U, 0xbd81e4d13ca0b181U,
  0x3cebaf01bd033ba1U, 0x3cdb9d41bb95fb01U, 0xbd1b5641bcfbc0c1U, 0xbd48dde1bd235f21U,
  0x3ccb8b81bd564201U, 0xbd7665813c0b4481U, 0x3c4b8b813d50e6c1U, 0xbd109fc13c4b8b81U,
  0xbd5642013d15fb01U, 0xbd6baf013cc63041U, 0xbd033ba13c6baf01U, 0xbd85e9413d134d61U,
  0xbca0b181bcbb79c1U, 0xbd235f21bd28ba61U, 0x3bc0d501bce0f881U, 0xbcd0e6c13d30c341U,
  0xbd15fb013d4e3921U, 0xbcab6801bd3370e1U, 0x3c8b4481bbebaf01U, 0x3d18a8a13d7e6e61U,
  0xbce653c1bd60f881U, 0xbd3e2761bc6baf01U, 0x3d9b56413d134d61U, 0xbb008e013d1e03e1U,
  0xbd3370e1bc40d501U, 0x3cfbc0c1bcf66581U, 0xbb808e01bd4b8b81U, 0xbc909fc1bd63a621U,
  0xbd94a431bc60f881U, 0xbd6baf013bab6801U, 0x3c808e01bd0896e1U, 0xbca60cc13d808e01U,
  0xbd9f5ab1bd6e5ca1U, 0xbd361e81bc008e01U, 0x3db0783f3dc9adfeU, 0x3d38df7f3e38df7fU,
  0x3cda7c7ebd73b23eU, 0x3d8edb3f3e1b761fU, 0xbddeb01ebe49adfeU, 0x3c6b4afebbc9adfeU,
  0xbd73b23ebe088dcfU, 0xbcc9adfebd5a7c7eU, 0x3b8673ff3d930edfU, 0xbbc9adfebd8aa79fU,
  0x3dfc197ebd82405fU, 0xbdd648de3da810ffU, 0x3d49adfe3d2810ffU, 0xbde2e3bebd73b23eU,
  0x3df3b23e3ca810ffU, 0xbd38df7f3db0783fU, 0x3c8673ffbc6b4afeU, 0x3cb8df7fbd52153eU,
  0xbd30783fbb0673ffU, 0xbdb0783fbde7175eU, 0xbd9fa9bfbca810ffU, 0xbdb8df7fbe195c4fU,
  0xbd6b4afebc0673ffU, 0xbd8edb3fbd52153eU, 0x3cda7c7ebcfc197eU, 0x3db0783f3dbd131fU,
  0xbb8673ff3cda7c7eU, 0xbc2810ff3d30783fU, 0xbb8673ff3d38df7fU, 0x3d73b23ebcc9adfeU,
  0xbc6b4afebd49adfeU, 0x3dfc197ebd5a7c7eU, 0xbd8edb3fbd9b761fU, 0x3d30783f3c8673ffU,
  0x3ddeb01e3ceb4afeU, 0xbc97427fbd30783fU, 0x3d52153e3d49adfeU, 0x3dcde19e3d82405fU,
  0xbcc9adfe3d4146bfU, 0x3dbd131f3e0673ffU, 0x3da810ffbda3dd5fU, 0x3d930edf3e195c4fU,
  0x3e32920f3c0673ffU, 0x3df7e5de3de2e3beU, 0x3d1fa9bf3d52153eU, 0x3c97427f3d62e3beU,
  0x3d49adfe3bc9adfeU, 0xbca810ffbcda7c7eU, 0xbdbd131fbe02405fU, 0x3db0783f3d49adfeU,
  0x3d0673ffbd7c197eU, 0x3c6b4afebd8673ffU, 0x3d2810ffbd2810ffU, 0x3d7c197e3cda7c7eU,
  0xbd82405fbd5a7c7eU, 0x3d5a7c7ebd2810ffU, 0x3ceb4afebcb8df7fU, 0x3dda7c7ebc49adfeU,
  0xbd0673ffbc97427fU, 0xbd1fa9bf3d6b4afeU, 0xbda3dd5fbcb8df7fU, 0xbd52153e3cda7c7eU,
  0xbe1d8fefbd97427fU, 0xbceb4afebe02405fU, 0xbd38df7fbe43608fU, 0xbd62e3bebdb4abdfU,
  0xbdc57a5fbe38df7fU, 0xbe856717bd5a7c7eU, 0xbdda7c7ebe2e5e6fU, 0xbdf7e5debe0cc16fU,
  0xbd8edb3f3cb8df7fU, 0xbdb0783fbdcde19eU, 0xbd8edb3f3d4146bfU, 0x3d7c197ebcda7c7eU,
  0xbc8673ffbd8edb3fU, 0xbca810ffbd8aa79fU, 0xbd17427fbe00268fU, 0xbdf3b23e3c8673ffU,
  0xbd4146bf3c0673ffU, 0xbcfc197ebd49adfeU, 0x3ca810ffbd8aa79fU, 0x3d5a7c7e3d8673ffU,
  0xbcb8df7fbd62e3beU, 0x3b8673ff3cb8df7fU, 0xbd6b4afe3d52153eU, 0xbc49adfe3d2810ffU,
  0x3de2e3be3d9fa9bfU, 0xbd49adfe3c49adfeU, 0xbcb8df7f3d930edfU, 0x3c49adfebb8673ffU,
  0x3d7c197ebd52153eU, 0xbcda7c7ebbc9adfeU, 0xbd0edb3f3cb8df7fU, 0x3c6b4afebcda7c7eU,
  0x3d8edb3f3c6b4afeU, 0x3da3dd5fbbc9adfeU, 0x3e0edb3f3cda7c7eU, 0x3e1fa9bf3e60c9eeU,
  0xbe00268fbd7c197eU, 0x3c2810ffbd2810ffU, 0xbd62e3bebe0edb3fU, 0xbda3dd5f3c8673ffU,
  0xbdeb4afebde2e3beU, 0xbda810ffbe045a2fU, 0xbd62e3bebdd648deU, 0x3d8edb3f3dc9adfeU,
  0x3bc9adfebcfc197eU, 0x3d0edb3f3e0aa79fU, 0x3d7c197e3d9fa9bfU, 0x3b0673ffbb0673ffU,
  0xbd8673ff3dd2153eU, 0xbe00268fbcda7c7eU, 0x3d1fa9bf3d82405fU, 0xbd73b23ebdbd131fU,
  0xbe1fa9bfbe0aa79fU, 0xbd8aa79fbe045a2fU, 0xbceb4afebc0673ffU, 0x3d9b761f3d4146bfU,
  0xbd17427fbdb4abdfU, 0x3b0673ffbc2810ffU, 0x3e36c5afbd5a7c7eU, 0x3db8df7f3e0cc16fU,
  0x3df7e5de3d8edb3fU, 0x3c49adfe3dc146bfU, 0x3d7c197e3d930edfU, 0x3d8aa79f3d8aa79fU,
  0xbc2810ff3d9fa9bfU, 0xbd0edb3fbceb4afeU, 0xbd26f8423c8f1defU, 0xbda6f842bdb8dbffU,
  0xbe0330c63e6e8739U, 0xbdee8739be0330c6U, 0xbd1b0b183dc4c929U, 0x3c3ed294bd56ace6U,
  0x3bbed2943e2fea20U, 0x3e09275a3d951484U, 0xbd3ed29400000000U, 0x3da101ad3d8f1defU,
  0xbca6f8423d629a10U, 0xbbbed294bd1b0b18U, 0xbd89275abc6e8739U, 0x3dbed294bd26f842U,
  0xbd4abfbd3da101adU, 0x3d26f8423c8f1defU, 0xbe50b652bddca37bU, 0xbd8f1defbdee8739U,
  0xbd26f842bca6f842U, 0xbd56ace6bd32e56bU, 0xbe121939bd951484U, 0x3d629a10bc6e8739U,
  0xbd32e56bbc6e8739U, 0x3dee87393bbed294U, 0x3cbed294bc8f1defU, 0x3de890a43bbed294U,
  0x3c0f1def3c3ed294U, 0x3cbed2943ca6f842U, 0x3daceed6bd9b0b18U, 0xbbbed294bb3ed294U,
  0x3daceed63c0f1defU, 0xbe151484bd629a10U, 0x3e09275abcbed294U, 0x3e980fce3e59a831U,
  0xbbbed294bcbed294U, 0x3e062c103e00357bU, 0x3cee8739bca6f842U, 0x3cd6ace63d9b0b18U,
  0x3e1b0b183bbed294U, 0xbda6f842bd951484U, 0x3e3bd74a3e7a7462U, 0x3dd6ace63d8330c6U,
  0xbd3ed2943e062c10U, 0x3dfa74623d9b0b18U, 0xbca6f8423d26f842U, 0x3da6f8423d0330c6U,
  0x3da6f842bda6f842U, 0x3d0330c63bbed294U, 0x3d4abfbd3e38dbffU, 0xbca6f842bdaceed6U,
  0xbd26f842bd0f1defU, 0xbb3ed294bd0f1defU, 0xbcd6ace6U, 0xbda101adbd3ed294U,
  0x3cd6ace6bc6e8739U, 0xbde890a4bd32e56bU, 0xbd0330c63de29a10U, 0xbda101adbe35e0b5U,
  0x3d56ace63da101adU, 0x3cbed294bd32e56bU, 0x3cd6ace6bd951484U, 0x3d629a103cbed294U,
  0xbb3ed2943cd6ace6U, 0x3d8f1def3dfa7462U, 0xbda6f8423c6e8739U, 0x3d8f1defbc8f1defU,
  0xbd9b0b18bd7a7462U, 0x3c8f1def3d8330c6U, 0x3d0f1defbd1b0b18U, 0x3dfa74623c6e8739U,
  0x3de890a43d32e56bU, 0x3d6e87393e00357bU, 0xbd6e8739bb3ed294U, 0xbdb8dbffbe2fea20U,
  0xbbbed2943c3ed294U, 0xbc3ed294bd4abfbdU, 0xbcd6ace6bd629a10U, 0x3e0330c6bc3ed294U,
  0xbd26f8423d4abfbdU, 0x3e062c10bbbed294U, 0x3d8f1def3cee8739U, 0x3d0f1def3bbed294U,
  0x3d1b0b18bcd6ace6U, 0x3de890a43d8330c6U, 0x3d4abfbdbd32e56bU, 0x3da6f8423db2e56bU,
  0xbd32e56bbdcabfbdU, 0x3d6e87393d0f1defU, 0xbca6f8423d8330c6U, 0x3c0f1defbd3ed294U,
  0xbcee8739bd9b0b18U, 0x3d0330c63c3ed294U, 0xbc8f1defbd56ace6U, 0x3cd6ace6be00357bU,
  0xbe1b0b18be00357bU, 0xbe0330c6bdd6ace6U, 0xbddca37bbcee8739U, 0xbebd54efbe747dceU,
  0x3d4abfbd00000000U, 0xbd6e8739bd7a7462U, 0x3da101ad3d3ed294U, 0xbd1b0b183d0330c6U,
  0xbc0f1def3cd6ace6U, 0x3ca6f842bc8f1defU, 0xbca6f842bb3ed294U, 0xbcbed294bdaceed6U,
  0xbc8f1defbca6f842U, 0xbd629a103d32e56bU, 0x3d7a7462bc6e8739U, 0x3dbed2943cee8739U,
  0x3daceed6bdc4c929U, 0x3df47dce3e6890a4U, 0xbd6e87393d0f1defU, 0xbda101adbe0c22a5U,
  0xbd629a10bc6e8739U, 0xbe29f38cbe0330c6U, 0x3cbed2943db8dbffU, 0xbd0f1defbe062c10U,
  0xbcbed2943d0f1defU, 0x3dd0b6523ca6f842U, 0x3dd0b6523e7a7462U, 0x3da6f8423d26f842U,
  0xbd9514843dcabfbdU, 0xbc6e8739bd0f1defU, 0x3d0330c63d7a7462U, 0xbd1b0b183cee8739U,
  0x3d4abfbd3da101adU, 0xbe2101adbca6f842U, 0xbdf659bb3cfa42c6U, 0x3db3dffe3c7a42c6U,
  0x3b7a42c63e5905e8U, 0x3d88dc84bcdafa6dU, 0x3d810a6e3e06e7ffU, 0x3d7a42c63db3dffeU,
  0x3ccb56413dac0de8U, 0x3de6b58f3dd32857U, 0x3d2c0de8bd04f379U, 0x3e12a3203e37c909U,
  0x3c7a42c63d5afa6dU, 0x3dcb5641bda052c7U, 0x3cea9e9a3ccb5641U, 0x3d9497a63d43842bU,
  0xbe0eba15bafa42c6U, 0x3b7a42c6bafa42c6U, 0xbda824ddbe243bd2U, 0x3d04f379bdc3842bU,
  0xbd1497a63d88dc84U, 0x3db3dffe3afa42c6U, 0xbd90ae9a3cac0de8U, 0x3d243bd2bafa42c6U,
  0x3d04f3793d2c0de8U, 0xbcfa42c63d90ae9aU, 0x3d8cc58f3cfa42c6U, 0x3cbbb214bc8cc58fU,
  0x3c7a42c6bcea9e9aU, 0x3da43bd23c9c69bcU, 0x3d8cc58f3b7a42c6U, 0x3d6a9e9a3db3dffeU,
  0x3d43842bbccb5641U, 0x3d1497a63bfa42c6U, 0x3e5ceef33df270b0U, 0x3e4961bb3e2052c7U,
  0x3d5afa6d3afa42c6U, 0x3d9880b13da052c7U, 0xbb7a42c63d9c69bcU, 0xbd7a42c63daff6f3U,
  0x3c5afa6dbda052c7U, 0xbddafa6dbc9c69bcU, 0x3d8cc58f3e3da69aU, 0x3e168c2b3e2c0de8U,
  0xbd1c69bc3e5905e8U, 0xbd1c69bcbcdafa6dU, 0x3d7270b03e2e026eU, 0x3bfa42c63df659bbU,
  0x3e0ad10a3d7270b0U, 0xbc8cc58f3d1c69bcU, 0xbd4b56413e571162U, 0xbdaff6f3be551cddU,
  0xbdac0de8be168c2bU, 0xbc7a42c6bd8cc58fU, 0x3c5afa6d3cdafa6dU, 0xbd6a9e9abcfa42c6U,
  0xbcbbb2143dc76d36U, 0xbd8cc58fbe08dc84U, 0xbd90ae9abd84f379U, 0x3d43842b3d4b5641U,
  0xbccb5641bd43842bU, 0x3d2c0de83d0cc58fU, 0x3c9c69bc3d0cc58fU, 0x3d3bb2143d4b5641U,
  0x3d9497a63ccb5641U, 0x3c1c69bc3d3bb214U, 0xbe2824dd3afa42c6U, 0xbd43842bbdb7c909U,
  0x3d84f379bc8cc58fU, 0xbdb7c9093d5afa6dU, 0xbdc76d36bd88dc84U, 0x3bfa42c6bd4b5641U,
  0x3c3bb214bd8cc58fU, 0x3d1497a63dd71162U, 0xbe418fa5be476d36U, 0x3d243bd23cac0de8U,
  0x3d0cc58fbd9497a6U, 0x3cac0de83d1c69bcU, 0xbcbbb214bd532857U, 0x3daff6f33d4b5641U,
  0x3d1497a6bc7a42c6U, 0x3d7a42c6bc5afa6dU, 0x3dee87a53ddafa6dU, 0x3db7c9093d62cc83U,
  0x3da824dd3d9497a6U, 0x3b7a42c63c8cc58fU, 0x3cdafa6dbafa42c6U, 0xbc3bb2143cfa42c6U,
  0x3c3bb214bbfa42c6U, 0x3da43bd23bbbb214U, 0x3d8cc58fbd8cc58fU, 0x3b7a42c63d7270b0U,
  0xbd810a6ebd9880b1U, 0xbcbbb2143bfa42c6U, 0xbd9c69bcbc8cc58fU, 0xbd2c0de8bdcf3f4cU,
  0xbe784e40bd6a9e9aU, 0xbdb7c909be418fa5U, 0xbdd32857be22474cU, 0xbe4961bbbe6e87a5U,
  0xbdaff6f3be12a320U, 0xbd532857bc8cc58fU, 0x3d1497a63d3bb214U, 0xbcbbb2143da824ddU,
  0x3cdafa6d3bfa42c6U, 0xbc9c69bc3c1c69bcU, 0x3dac0de8bc5afa6dU, 0x3d3bb2143bbbb214U,
  0x3dcf3f4c3c7a42c6U, 0x3d1c69bc3dee87a5U, 0x3d9c69bc3bfa42c6U, 0x3c8cc58f3d84f379U,
  0x3e22474cbd84f379U, 0x3e2824dd3e707c2aU, 0xbe31eb79be06e7ffU, 0xbde6b58fbe06e7ffU,
  0xbdb3dffebe02fef4U, 0xbe2824ddbdb3dffeU, 0x3d9880b13cdafa6dU, 0xbdb3dffebd84f379U,
  0x3d5afa6d3bfa42c6U, 0x3d4b56413db3dffeU, 0x3d7a42c63e5133d2U, 0xbd810a6e3d810a6eU,
  0xbbfa42c63db7c909U, 0x3cdafa6d3cfa42c6U, 0x3e0cc58f3e1497a6U, 0xbd33dffe3bbbb214U,
  0x3bbbb2143d810a6eU, 0xbcbbb2143d0cc58fU, 0xbe0500583d180065U, 0xbd9cc068bdb9407bU,
  0xbe180065bc980065U, 0xbd5a8091bd980065U, 0x3d850058bd21806bU, 0xbdb48078bc3e007eU,
  0x3dc2c0813d180065U, 0xbc850058bcab0072U, 0xbb1800653d6d809eU, 0xbde8c09bbdc78085U,
  0x3d804055bc640098U, 0xbdf700a43d180065U, 0xbcab0072bdb48078U, 0xbc8500583c3e007eU,
  0xbd51008bbd9cc068U, 0xbc640098bd7700a4U, 0xbd1800653d21806bU, 0xbdbe007e3d640098U,
  0x3b180065bd89c05cU, 0xbd9cc068bd7700a4U, 0x3b1800653ce40098U, 0x3d6400983dafc075U,
  0xbb1800653c980065U, 0x3d5a80913cab0072U, 0x3da6406e3da6406eU, 0xbc85005800000000U,
  0xbc640098bd934062U, 0x3d51008bbd51008bU, 0xbd8500583c850058U, 0x3b180065bdcc4088U,
  0xbb9800653d348078U, 0xbdbe007ebd89c05cU, 0x3d6d809e3dd1008bU, 0x3e02a0573be40098U,
  0xbc8500583c640098U, 0xbc85005800000000U, 0x3b9800653b180065U, 0x3d21806bbd5a8091U,
  0x3b980065bc180065U, 0xbd850058bda6406eU, 0xbcab00723d478085U, 0x3d934062bd8e805fU,
  0x3cf700a43e2fc075U, 0xbc3e007e3d21806bU, 0x3d3e007e3e406080U, 0x3d8500583ce40098U,
  0x3c8500583da1806bU, 0xbb180065bbe40098U, 0xbc3e007ebdbe007eU, 0x3de400983c850058U,
  0xbcf700a4bd9cc068U, 0x3cab0072bd6d809eU, 0xbd478085bdd5c08eU, 0xbc850058bb980065U,
  0xbdab00723d51008bU, 0xbddf4094bd850058U, 0x3d8e805fbc850058U, 0xbc180065bc180065U,
  0xbc3e007ebbe40098U, 0xbcd1008bbcf700a4U, 0x3cd1008b3d478085U, 0xbbe40098bb180065U,
  0x3e0500583d21806bU, 0x3c8500583dda8091U, 0xbd21806bbdb9407bU, 0x3d5a80913cbe007eU,
  0x3cf700a43d050058U, 0xbd478085bce40098U, 0x3dda8091bce40098U, 0x3c6400983de40098U,
  0xbd850058be0e805fU, 0x3cab0072bce40098U, 0x3ce40098bcf700a4U, 0xbdf240a1bd850058U,
  0x3d5a8091bd2b0072U, 0xbdd5c08ebc640098U, 0x3dd1008b3d050058U, 0xbbe40098bc3e007eU,
  0x3dda80913dd1008bU, 0x3e10e0603dd5c08eU, 0x3cbe007e3e55c08eU, 0x3c6400983d804055U,
  0x3ded809e3e0e805fU, 0x3b9800653ce40098U, 0x3d89c05c3dc78085U, 0x3d8e805f3c640098U,
  0x3d6d809e3e322076U, 0xbd0e805f3cf700a4U, 0x3e10e0603d640098U, 0x3dc780853b180065U,
  0x3cf700a43c980065U, 0x3e1340623e07605aU, 0x3d51008b3b180065U, 0x3db9407b3ddf4094U,
  0x3da6406ebd3e007eU, 0xbcd1008b3da1806bU, 0x3cab0072bd7700a4U, 0x3dafc0753c850058U,
  0xbdb48078bdb9407bU, 0x3d21806bbd2b0072U, 0xbc1800653d478085U, 0xbde8c09b3be40098U,
  0x3b980065bc3e007eU, 0xbdb9407bbcab0072U, 0xbd934062bd804055U, 0xbd050058bd348078U,
  0xbe0500583d2b0072U, 0x3d850058be050058U, 0x3d9340623dbe007eU, 0xbd0500583be40098U,
  0x3df240a13dda8091U, 0xbc9800653c850058U, 0xbbe40098bd478085U, 0xbd640098bc640098U,
  0xbce40098be5ce093U, 0xbdf240a1bc640098U, 0xbd850058be96d064U, 0xbd6400983d348078U,
  0xbdda8091be09c05cU, 0x3cab007200000000U, 0x3be400983e61a096U, 0x3dd1008bbc980065U,
  0xbd2b00723e322076U, 0x3d8e805fbd5a8091U, 0x3d51008bbd640098U, 0xbc980065bd180065U,
  0xbdf700a4be7700a4U, 0xbd934062bd89c05cU, 0x3caf3086bcaf3086U, 0x3d1a556a3d0dd1f3U,
  0xbc057a4ebcfa4552U, 0x3cb7882bbd71edadU, 0x3d2f30863a857a4eU, 0x3d483775bc9e813dU,
  0x3cf1edad3c26d8e2U, 0xbd71edadbc483775U, 0xbd699608bd699608U, 0xbd71edad3b057a4eU,
  0x3c057a4ebcf1edadU, 0xbd0dd1f33d22ad0fU, 0xbc8dd1f3bd2b04b4U, 0xbc9e813dbd09a620U,
  0x3a857a4ebd58e6bfU, 0xbd2f3086bcaf3086U, 0xbd1629983cbfdfd0U, 0x3c699608bd508f1aU,
  0xbd335c59bcf1edadU, 0xbd0dd1f3bd761980U, 0x3cd8e6bfbd699608U, 0x3cc83775bc857a4eU,
  0xbba6d8e23c37882bU, 0xbd1e813dbc8dd1f3U, 0xbd814e7c3bc83775U, 0x3d2b04b4bd1e813dU,
  0x3d26d8e2bca6d8e2U, 0xbcaf30863ce99608U, 0x3d2b04b4bd761980U, 0x3d508f1abb857a4eU,
  0x3b857a4ebd89a620U, 0xbc857a4ebd836465U, 0xbd857a4ebd836465U, 0x3d54baecbbe99608U,
  0xbc7a4552bb857a4eU, 0xbb4837753d335c59U, 0x3cf1edadbd335c59U, 0x3d37882b3d014e7cU,
  0x3d3fdfd03d26d8e2U, 0xbd0dd1f3U, 0xbc162998bcb7882bU, 0xbd613e643d71edadU,
  0xbce13e643caf3086U, 0xbcaf3086bbc83775U, 0xbc26d8e2bd54baecU, 0x3d37882bbd22ad0fU,
  0x3d09a620bba6d8e2U, 0xbe046f59bd057a4eU, 0xbcd8e6bf3d1e813dU, 0xbb857a4ebd0dd1f3U,
  0x3c162998bc162998U, 0xbcd8e6bfbcbfdfd0U, 0x3ca6d8e23cd08f1aU, 0xbb057a4e3d3fdfd0U,
  0xbcaf3086bcc83775U, 0xbce99608bcaf3086U, 0xbcd8e6bfbcf1edadU, 0x3c8dd1f33c37882bU,
  0xbd8dd1f33d1e813dU, 0xbc9e813d3d22ad0fU, 0x3d057a4ebd8fe7dcU, 0xbd162998bd2f3086U,
  0x3a857a4e3c26d8e2U, 0xbd54baec3d0dd1f3U, 0x3c9e813d3c962998U, 0xbd1629983caf3086U,
  0x3c1629983b057a4eU, 0xbd4c63473d37882bU, 0xbd8fe7dcbd89a620U, 0xbd8bbc0abc58e6bfU,
  0xbd26d8e2bca6d8e2U, 0xbd71edadbb483775U, 0xbd8fe7dc3ce99608U, 0x3ba6d8e2bd2b04b4U,
  0x3c057a4ebd8fe7dcU, 0xbd22ad0fbcfa4552U, 0xbcfa45523d057a4eU, 0xbd014e7c3be99608U,
  0x3d3fdfd03c857a4eU, 0xbd3bb3fe3d54baecU, 0xbd58e6bfbd8fe7dcU, 0x3c8dd1f33c26d8e2U,
  0x3c8dd1f33cf1edadU, 0xbd656a363d54baecU, 0xbcf1edadbd962998U, 0xbd656a363d22ad0fU,
  0x3b057a4e3d22ad0fU, 0x3d508f1a3ce99608U, 0x3d508f1a3d54baecU, 0xbd09a620bcbfdfd0U,
  0x3d335c593c483775U, 0xbcbfdfd0bbe99608U, 0xbcfa4552bcaf3086U, 0xbd9413af3c9e813dU,
  0xbc37882b3d2f3086U, 0xbcc83775bd440ba3U, 0xbd7e7125bd3bb3feU, 0xbcb7882bba857a4eU,
  0xbcbfdfd0bd162998U, 0x3c8dd1f3bcbfdfd0U, 0xbc162998bd6dc1dbU, 0xbd71edadbc699608U,
  0xbd335c593d37882bU, 0x3d09a6203cbfdfd0U, 0x3d1e813dbbc83775U, 0xbc699608bd613e64U,
  0xbd3bb3febd761980U, 0x3d1e813d3c483775U, 0xbd09a620bd3bb3feU, 0xbc58e6bfbd2f3086U,
  0xbd6dc1dbbd761980U, 0x3d58e6bfbcaf3086U, 0xbd440ba3bb057a4eU, 0x3d1a556a3d057a4eU,
  0xbcc837753cc83775U, 0x3c962998bcfa4552U, 0x3cfa45523c7a4552U, 0xbd09a6203cb7882bU,
  0xbb4837753d014e7cU, 0x3d5d12913d37882bU, 0x3cfa45523d2f3086U, 0xbd1e813d3d26d8e2U,
  0xbcb7882bbd09a620U, 0x3d11fdc5bd26d8e2U, 0xbcbfdfd0bb057a4eU, 0xbd879037bd1a556aU,
  0x3d3fdfd0bb857a4eU, 0x3d1a556a3d014e7cU, 0x3cd7e9073d17b881U, 0xbd94cd93bbe96aa0U,
  0xbd34e5d53cb4e5d5U, 0x3c0c0cc6bd31fae7U, 0xbd0636e93b3abbb3U, 0xbd9aa3703d0c0cc6U,
  0x3ce394c2bc00610bU, 0xbd5ad3f63bbabbb3U, 0x3d4c3d4cbd2c2509U, 0xbd5ad3f6bc5dbee5U,
  0xbd23643d3d0636e9U, 0x3c2f0ff8bd1d8e5fU, 0xbce394c23ccc3d4cU, 0xbd0921d700000000U,
  0xbc696aa0bce96aa0U, 0x3ce394c200000000U, 0x3cc6676ebd409191U, 0xbbe96aa03d293a1aU,
  0x3b3abbb3bd0636e9U, 0x3d264f2bbd80610bU, 0xbb3abbb3bc2f0ff8U, 0x3ca93a1a3cc09191U,
  0xbd521329bcef407dU, 0xbd54fe18bd8636e9U, 0xbd8ef7b5bd1aa370U, 0xbd0636e9bc8c0cc6U,
  0x3c8636e93c2f0ff8U, 0xbd293a1a3d0921d7U, 0xbbbabbb3bd4c3d4cU, 0x3d437c7fbd0636e9U,
  0x3d00610bbd80610bU, 0xbd4c3d4cbd6f407dU, 0xbd264f2bbcb4e5d5U, 0x3cf5165bbd46676eU,
  0x3cef407d3d1aa370U, 0xbc80610b3b0c0cc6U, 0x3d46676ebd2c2509U, 0xbd78014abd7aec39U,
  0xbc80610b3d2f0ff8U, 0xbcd7e9073c75165bU, 0xbd34e5d53d46676eU, 0x3caf0ff83bbabbb3U,
  0x3d293a1aba3abbb3U, 0xbdac2509bcf5165bU, 0xbd46676e3cddbee5U, 0xbdaaaf92bc97b881U,
  0xbc97b881bcf5165bU, 0xbdb65b4dbd667fb1U, 0xbd81d682bd14cd93U, 0xbd8ef7b5bd722b6cU,
  0xbc9d8e5fbd2f0ff8U, 0xbd5213293d4f283bU, 0xbd667fb1bd667fb1U, 0xbc75165b3d57e907U,
  0x3ce96aa0bcd21329U, 0xbccc3d4cbd2f0ff8U, 0x3cbabbb33d437c7fU, 0xbcd21329bd667fb1U,
  0x3c5dbee5bb696aa0U, 0x3d17b881bd1d8e5fU, 0xbd84c171bb8c0cc6U, 0xbd8921d73c00610bU,
  0xbd8d823ebb3abbb3U, 0xbcb4e5d5bccc3d4cU, 0xbd00610bbd8a974fU, 0xbd7dd727bcd7e907U,
  0x3ce394c23b696aa0U, 0xbd7aec393b0c0cc6U, 0xbd0ef7b5bbbabbb3U, 0xbd6394c23c46676eU,
  0xbc00610bbd667fb1U, 0xbd31fae73bd21329U, 0xbca93a1abc3abbb3U, 0xbc2f0ff8bd667fb1U,
  0xbababbb3bbe96aa0U, 0x3c3abbb33c97b881U, 0xbcaf0ff83cef407dU, 0x3d3abbb3bd0c0cc6U,
  0x3cddbee53d34e5d5U, 0x3cb4e5d53d17b881U, 0x3ce394c23d6394c2U, 0xbd94cd93bd834bfaU,
  0x3cd21329bd0636e9U, 0xbba3643d3d3abbb3U, 0xbd667fb1bd3da6a2U, 0x3d4091913c23643dU,
  0xbd8a974f3bd21329U, 0x3d2f0ff83d2f0ff8U, 0xbd20794ebcddbee5U, 0xbd4f283b3cfaec39U,
  0xbcc6676e3caf0ff8U, 0xbd20794ebbd21329U, 0x3c0c0cc6bd93581bU, 0xbd14cd93bce394c2U,
  0x3b8c0cc63d2c2509U, 0xbd6c558fbcb4e5d5U, 0xbcef407dbd264f2bU, 0xbd696aa0ba3abbb3U,
  0x3cf5165b3cfaec39U, 0xbd7dd727bc00610bU, 0xbd4091913b3abbb3U, 0xbb0c0cc6bbe96aa0U,
  0xbcef407d3ccc3d4cU, 0x3ccc3d4cbc80610bU, 0x3b0c0cc6bd57e907U, 0x3d1aa3703d3abbb3U,
  0xbcbabbb3bc00610bU, 0xbd78014a3c521329U, 0x3d34e5d5bcd7e907U, 0xbbd21329bbbabbb3U,
  0xbd4f283bbd60a9d3U, 0xbd57e907bb696aa0U, 0xbd6c558fbd31fae7U, 0x3c17b8813c9d8e5fU,
  0xbbd21329bdb9463cU, 0xbcfaec39bbbabbb3U, 0xbd8c0cc63ccc3d4cU, 0x3be96aa0bd696aa0U,
  0xbcd21329bd437c7fU, 0xbc80610bbd78014aU, 0xbd7dd7273d34e5d5U, 0xbcddbee5bd437c7fU,
  0x3bd21329bd60a9d3U, 0x3d034bfabc91e2a4U, 0x3b0c0cc6bd8d823eU, 0xbc2f0ff83cb4e5d5U,
  0x3d6f407dbcbabbb3U, 0x3d20794ebd5dbee5U, 0x3cd165bd3b3615b0U, 0xbbb615b03d2626fdU,
  0xbc96384b3c23e051U, 0x3c5a806cbd89b39aU, 0x3c23e0513d0f6447U, 0xbd90879dbcc84b0eU,
  0x3bfeeb29bcb615b0U, 0x3d33cf04bd639b1cU, 0x3cc84b0e3b11aaf3U, 0xbc75d07a3c639b1cU,
  0x3b7eeb29bd2cfb01U, 0x3b91aaf33c8d1d9bU, 0xbcb18858bd3ce9b3U, 0xbc6cb5cbbd65e1c7U,
  0x3cb615b0bd682873U, 0xbd8890443d53ac69U, 0xbd089044bd13f19fU, 0x3d484b0ebd5165bdU,
  0xbd286da9bd65e1c7U, 0xbbc84b0ebd639b1cU, 0xbd460462bd5a806cU, 0x3cb188583d5f0dc4U,
  0x3d187ef63c91aaf3U, 0x3c5165bd3b91aaf3U, 0x3c23e051bd5839c1U, 0xbb91aaf3bd33cf04U,
  0xbd2ab455bd2626fdU, 0xbd13f19fbd2f41acU, 0xbd2cfb01bd3aa307U, 0xbd82df96bcda806cU,
  0x3c5a806c3d23e051U, 0xbd8402ecbd89b39aU, 0x3c484b0ebd286da9U, 0xbc8402ec3d41770bU,
  0xbd33cf043cd165bdU, 0xbc6cb5cbbc96384bU, 0xbc11aaf3bd864998U, 0x3cda806c3c23e051U,
  0xbce82873bd5839c1U, 0xbb5a806cbbc84b0eU, 0xbd286da93b91aaf3U, 0xbd8e40f13d4cd866U,
  0x3cd165bdbcb18858U, 0xbd75d07abd318858U, 0x3cecb5cbbd8ad6f0U, 0x3c91aaf3bca3e051U,
  0xbd55f3153b7eeb29U, 0x3d13f19fbd13f19fU, 0xbd13f19fbd1f52faU, 0xbd0890443ce82873U,
  0xbd187ef63b11aaf3U, 0x3a91aaf33c639b1cU, 0xbd5cc718bd639b1cU, 0xbcdf0dc43c639b1cU,
  0xbb5a806c3cda806cU, 0xbc96384bbcf14322U, 0x3cc84b0ebd01bc40U, 0xbc23e0513d2cfb01U,
  0x3d1ac5a2bd460462U, 0x3d0d1d9b3d33cf04U, 0x3c089044bc23e051U, 0xbcfa5dd2bb3615b0U,
  0xbc8402ecbd8f6447U, 0x3cf143223ca3e051U, 0x3c8890443bb615b0U, 0xbcb615b03cccd866U,
  0xbc5165bd3cfa5dd2U, 0xbcbaa307bd0ad6f0U, 0xbd5f0dc4bd2f41acU, 0x3d3f305fbb91aaf3U,
  0x3ada806c3ada806cU, 0xbd1f52fabd0402ecU, 0x3c75d07abcd165bdU, 0xbcf5d07a3b91aaf3U,
  0xbc91aaf33b91aaf3U, 0x3d1ac5a2bc2cfb01U, 0x3d5165bdbd0d1d9bU, 0x3d53ac69bd2626fdU,
  0x3c96384b3c7eeb29U, 0xbcbf305fbca86da9U, 0xbd876ceebd5f0dc4U, 0x3d5839c13d0f6447U,
  0xbd0f64473bda806cU, 0xbc1ac5a23bda806cU, 0xbd714322bd8098ebU, 0xbcccd8663c6cb5cbU,
  0xbd3615b0bcb615b0U, 0xbd1f52fa3ca3e051U, 0x3cda806cbce39b1cU, 0x3d43bdb73d5165bdU,
  0xbbecb5cb3c8d1d9bU, 0x3d4a91ba3d187ef6U, 0x3c2cfb013c9f52faU, 0xba11aaf33c11aaf3U,
  0x3c2cfb013d089044U, 0xbd318858bd781726U, 0xbcccd866bd7eeb29U, 0xbd0890443bc84b0eU,
  0xbd3f305fbd7eeb29U, 0xbc5a806c3c96384bU, 0xbc96384bU, 0xbd318858bcf14322U,
  0xbd4a91babd33cf04U, 0xbd8d1d9bbd864998U, 0x3c889044bcf5d07aU, 0xbc0890443d5f0dc4U,
  0x3c639b1c3d13f19fU, 0xbd1ac5a2bd682873U, 0xbd6cb5cbbcccd866U, 0x3c11aaf33b3615b0U,
  0xbca3e051bd639b1cU, 0x3d6a6f1fbd7ca47dU, 0xbcfa5dd23c639b1cU, 0xbd3aa3073d41770bU,
  0xbd0ad6f03c11aaf3U, 0x3d187ef63c5165bdU, 0xbcacfb01bcfa5dd2U, 0xbbc84b0ebc5a806cU,
  0xbd6efc773bda806cU, 0x3b7eeb29bcccd866U, 0xbcfa5dd2bd1ac5a2U, 0x3d13f19fbb7eeb29U,
  0xbd385c5c3c5a806cU, 0xbd0402ec3cda806cU, 0xbada806c3c23e051U, 0xbcbaa3073d16384bU,
  0xbc9ac5a2bd01bc40U, 0xbd2199a6bc1ac5a2U, 0xbd8677b9bc9d6cf1U, 0x3d4b5762bd5f0500U,
  0xbc6c236abd5f0500U, 0x3dc18093bd96ddbdU, 0x3d1d6cf1bcdf0500U, 0x3c03301ebd4b5762U,
  0x3b9d6cf13d51e697U, 0xbd4b5762bd6c236aU, 0x3d03301ebdb11a8fU, 0x3e4cfb2f3d939622U,
  0xbd51e697bdb7a9c4U, 0x3dbaf15e3ad1e697U, 0x3d3e38f9U, 0xbe0b6320bc51e697U,
  0x3df5fa393c6c236aU, 0xbd6c236a3c1d6cf1U, 0x3d44c82e3d9a2557U, 0x3dbe38f93de24c9bU,
  0xbad1e697bb9d6cf1U, 0x3da3fc26bd03301eU, 0xbdb7a9c43d311a8fU, 0xbd37a9c4bcb7a9c4U,
  0xbe081b863d2a8b5bU, 0xbd9d6cf13c6c236aU, 0xbd89bf533dc18093U, 0xbe1539efbe2dd2f5U,
  0x3d6594353d5875ccU, 0xbdb11a8fbd104e88U, 0x3d904e88bc83301eU, 0x3db4622a3d1d6cf1U,
  0x3d37a9c4bd4b5762U, 0x3dc80fc83d8d06edU, 0x3d5f05003e2a8b5bU, 0xbe5042cabd96ddbdU,
  0x3d311a8fbd23fc26U, 0xbdd52e31bcd1e697U, 0x3cdf0500bd7fd108U, 0x3cb7a9c4bcec236aU,
  0x3c37a9c43c83301eU, 0x3c1d6cf13dce9efdU, 0xbd4b57623d83301eU, 0x3d83301ebd5f0500U,
  0xbe0eaabb3e0677b9U, 0xbc904e88bd09bf53U, 0x3b51e697bc9d6cf1U, 0xbd7941d3bcec236aU,
  0xbbd1e697bdbe38f9U, 0x3b51e697bd904e88U, 0xbde594353c904e88U, 0xbdc80fc8be081b86U,
  0xbddbbd663dd875ccU, 0xbd96ddbdbcc4c82eU, 0x3cec236a3d83301eU, 0x3d5f0500bd1d6cf1U,
  0x3de24c9bbc37a9c4U, 0x3c83301e3c83301eU, 0x3cdf0500bda743c0U, 0x3caa8b5b3d72b29fU,
  0xbc1d6cf13cc4c82eU, 0x3c9d6cf13c6c236aU, 0x3d6c236a3bd1e697U, 0x3d9396223cd1e697U,
  0x3d104e883dd875ccU, 0x3d5875ccbd2a8b5bU, 0x3caa8b5b3d6c236aU, 0xbdc180933c51e697U,
  0xbd03301e3bd1e697U, 0xbc51e697bd89bf53U, 0xbd7941d33d5f0500U, 0x3c03301ebd4b5762U,
  0xbd1d6cf13de24c9bU, 0xbe2c2f28be09bf53U, 0x3c37a9c4bd72b29fU, 0x3c83301e3dbaf15eU,
  0x3dadd2f53da743c0U, 0xbc904e883ddbbd66U, 0x3d44c82e3dbaf15eU, 0x3da0b48c3d16ddbdU,
  0xbdb4622abd659435U, 0xbd51e697bdfc896eU, 0x3dce9efd3de24c9bU, 0x3b9d6cf13c51e697U,
  0x3de24c9b3e1d6cf1U, 0xbde24c9bbd5875ccU, 0xbbd1e697bd37a9c4U, 0xbd16ddbdbd3e38f9U,
  0xbd6c236a3c51e697U, 0xbd96ddbdbdd52e31U, 0xbe0b6320bd4b5762U, 0xbc9d6cf1bdffd108U,
  0xbcc4c82e3bd1e697U, 0xbd83301e3d44c82eU, 0xbd83301ebc6c236aU, 0xbd2a8b5b3caa8b5bU,
  0x3d89bf533da0b48cU, 0xbad1e6973cdf0500U, 0xbcd1e697be139622U, 0xbc83301ebe081b86U,
  0x3b51e697bd7941d3U, 0x3cdf0500bcb7a9c4U, 0x3dc4c82e3d72b29fU, 0x3e018c513d1d6cf1U,
  0x3d7fd1083d904e88U, 0xbc83301ebad1e697U, 0x3d6c236a3d939622U, 0x3da0b48cbbd1e697U,
  0x3dbaf15e3d5875ccU, 0xbc904e88bc83301eU, 0xbb9d6cf1bd104e88U, 0x3cec236abad1e697U,
  0xbdc80fc8bd104e88U, 0x3caa8b5bbd3e38f9U, 0xbd44c82ebd44c82eU, 0x3d6594353c9d6cf1U,
  0x3dd875cc3c9d6cf1U, 0x3de8dbd0bb51e697U, 0x3d72b29f3df941d3U, 0xbd7fd1083c1d6cf1U,
  0xbb51e6973d23fc26U, 0xbe11f255bd96ddbdU, 0xbe0eaabb00000000U, 0xbdcb5762bdce9efdU,
  0x3ad1e697bd03301eU, 0xbd83301e3c83301eU, 0x3cec236a3caa8b5bU, 0x3dd52e313b51e697U,
  0x3def6b043d09bf53U, 0x3dffd1083e3c952cU, 0xbde733c93c8a5b76U, 0xbd0a5b763d9547bcU,
  0xbdc66ef7bd4f8932U, 0x3d031348bcaec460U, 0x3d449cec3c203402U, 0xbd9c8febbd449cecU,
  0xbbcbe51abb2ec460U, 0xbd4be51abd9c8febU, 0xbcf04e043db7de9aU, 0xbd203402bd5a7578U,
  0xbda3d81abd23d81aU, 0xbd9719c8bda94e3dU, 0x3d831348bc203402U, 0xbccbe51a3c91a3a5U,
  0xbd18ebd43b2ec460U, 0xbd0a5b76bc203402U, 0x3b91a3a5bd4f8932U, 0xbdb43a833a6905d5U,
  0xbd39b0a6bccbe51aU, 0x3c2ec460bc6905d5U, 0x3d2ec460bcaec460U, 0xbb6905d53c031348U,
  0xbdc0f8d4bd326877U, 0x3c2ec460bb6905d5U, 0xbd88896bbb91a3a5U, 0xbd23d81a3cbd54bdU,
  0xbd8dff8e3d4be51aU, 0x3bcbe51abc779632U, 0xbd23d81abd5e198fU, 0xbdb43a83bc91a3a5U,
  0xbcb60c8ebcf79632U, 0x3c8a5b763d1547bcU, 0xbd4f8932bdbd54bdU, 0xbc0313483d61bda6U,
  0xbcaec4603bcbe51aU, 0xbd88896b3a6905d5U, 0xbccbe51a3ce1bda6U, 0x3cb60c8ebcf79632U,
  0xbd8313483cbd54bdU, 0x3d11a3a5bcbd54bdU, 0x3cda7578bbcbe51aU, 0xbd91a3a5bd0a5b76U,
  0x3d532d493c98ebd4U, 0xbc91a3a5bd8c2d82U, 0xbd5e198f3caec460U, 0xbd277c31bc831348U,
  0x3ce905d5bc2ec460U, 0xbd2ec460bd40f8d4U, 0x3ce905d53d1c8febU, 0xbc2ec460bc8a5b76U,
  0xbd40f8d43b91a3a5U, 0xbd031348bd3d54bdU, 0xbd8fd199bd4be51aU, 0xbd11a3a53bcbe51aU,
  0x3b91a3a53cf04e04U, 0xbc5a75783c203402U, 0x3c98ebd43d3d54bdU, 0xbd2034023c8a5b76U,
  0xbcda7578U, 0xbd3d54bdbd39b0a6U, 0x3c3d54bdbc2ec460U, 0x3c2ec460bd8c2d82U,
  0xbd84e553bd0dff8eU, 0xbd4be51abd73f21bU, 0xbdcdb7263a6905d5U, 0xbbcbe51abce1bda6U,
  0xbbaec460bdacf254U, 0x3c91a3a5bcd32d49U, 0xbda03402bc031348U, 0x3d7b3a4abc6905d5U,
  0xbda77c31bd277c31U, 0xbcf79632bd06b75fU, 0xbd18ebd4bc3d54bdU, 0xbd532d49bd449cecU,
  0xbd2ec4603d203402U, 0x3c2ec460bd4be51aU, 0xbcb60c8ebd8c2d82U, 0xbda3d81abd56d160U,
  0xbd7ede61bca77c31U, 0xbd484103bd779632U, 0x3d9719c83a6905d5U, 0xbc8313483baec460U,
  0x3baec460bd8fd199U, 0x3cf79632bd1547bcU, 0xbda5aa253ae905d5U, 0xbd8dff8ebd06b75fU,
  0x3ce1bda6U, 0xbca77c31bcbd54bdU, 0xbd61bda6bd86b75fU, 0x3ca034023cbd54bdU,
  0x3d704e04bd18ebd4U, 0xbcc49cecbb2ec460U, 0xbd7ede61bccbe51aU, 0xbdb0966b3cda7578U,
  0x3d031348bd484103U, 0x3d6561bebd81413cU, 0x3c8a5b763d8dff8eU, 0xbd9375b1bce1bda6U,
  0xbcaec460bb2ec460U, 0xbdb43a83bd6561beU, 0xbcb60c8ebd9547bcU, 0xbd277c313c4be51aU,
  0x3cd32d49bc779632U, 0xbcc49cec3d5a7578U, 0xbd9c8feb3cb60c8eU, 0xbd56d1603d18ebd4U,
  0xbd1c8feb3ae905d5U, 0xbd5a7578bd84e553U, 0xbda2060ebd86b75fU, 0xbca77c313c831348U,
  0xbcd32d49bd56d160U, 0xbcd32d49bd6561beU, 0xbcc49cec3da77c31U, 0x3baec460bd0dff8eU,
  0xbd81413c3d0a5b76U, 0x3cda7578bc831348U, 0xbb6905d5bc8a5b76U, 0x3c4be51a3d91a3a5U,
  0xbd88896bbcf79632U, 0xbdb26877bd18ebd4U, 0x3d6ca9ecbd8dff8eU, 0x3ca034023d1547bcU,
  0x3ce1bda6bda03402U, 0x3cb60c8e3baec460U, 0xbb2ec4603c4be51aU, 0xbdc0f8d4U,
  0xbd98ebd4bce1bda6U, 0xbd277c313bcbe51aU, 0xbc837e3a3d00f6e0U, 0x3d1f4f15bd037e3aU,
  0xbd1022fb3d3b1ff0U, 0x3cfcdf0dbc546972U, 0xbc8d9ba1bb4a4c0bU, 0x3d453d573d453d57U,
  0x3d296c7cbcca4c0bU, 0xbc72c1a6bc4a4c0bU, 0xbd088cee3d00f6e0U, 0xbca1d66fbce8a440U,
  0x3cbb1ff0bd9b840fU, 0xbd6db2f3bd63958cU, 0xbd088ceebc72c1a6U, 0xbc0d9ba1bc68a440U,
  0xbd89d09b3d5e86d9U, 0xbc72c1a6bd823a8dU, 0xbd703a4dbd7f6667U, 0x3c8d9ba13d21d66fU,
  0x3c21d66fbcd46972U, 0xbc5469723b72c1a6U, 0xbc0d9ba13d36113dU, 0xbd661ce63d17b908U,
  0xbd12aa55U, 0xbd037e3a3ccf5abeU, 0xbd703a4d3cedb2f3U, 0x3d245dc9bd42b5feU,
  0xbd874941bd7cdf0dU, 0xbd703a4dbd21d66fU, 0xbcca4c0b3ba1d66fU, 0x3ce3958cbd1f4f15U,
  0xbd837e3abc2bf3d6U, 0x3d037e3abd874941U, 0x3cd469723c4a4c0bU, 0xbc97b908bd888ceeU,
  0x3d36113d3d1531aeU, 0x3d51e2183ca1d66fU, 0xbd610e32bd1f4f15U, 0x3d0b14473c68a440U,
  0xbc4a4c0bbd1531aeU, 0xbd7cdf0dbc2bf3d6U, 0xbd12aa55bd060594U, 0xbcfcdf0d3c8d9ba1U,
  0x3d1cc7bc3cb6113dU, 0xbd1f4f15bc9cc7bcU, 0xbcf7d05abd389897U, 0x3c9cc7bcbd80f6e0U,
  0xbc2bf3d63d453d57U, 0x3b8d9ba13d037e3aU, 0x3d4cd3643d0d9ba1U, 0xbc8d9ba1bd4cd364U,
  0xbcc53d573c888ceeU, 0xbce8a440bd51e218U, 0xbcf2c1a6bd1cc7bcU, 0xbcd97825bd610e32U,
  0xbd0b14473cedb2f3U, 0xbd703a4d3ca1d66fU, 0xba21d66fbd42b5feU, 0xbd8749413d3da74aU,
  0x3b4a4c0b3c97b908U, 0xbd546972bd77d05aU, 0xbd1cc7bc3cbb1ff0U, 0xbd4f5abe3d1022fbU,
  0xbd3102893d17b908U, 0x3c037e3a3c72c1a6U, 0xbd26e522bd754900U, 0xbcb6113dbccf5abeU,
  0xbd037e3a3cc02ea4U, 0xbd26e5223af2c1a6U, 0x3ccf5abebd2e7b30U, 0xbd8d9ba1bd088ceeU,
  0xbcedb2f3bc2bf3d6U, 0xbd36113d3af2c1a6U, 0xbd1a4062bb72c1a6U, 0x3bde86d9bd42b5feU,
  0x3b8d9ba13c546972U, 0xbaf2c1a63d4a4c0bU, 0xbc7cdf0dbaa1d66fU, 0x3c8d9ba1bd8b1447U,
  0xbba1d66f3d1f4f15U, 0x3d453d57bd6db2f3U, 0x3cfcdf0d3b4a4c0bU, 0xbb21d66f3c68a440U,
  0xbb8d9ba1bd037e3aU, 0xbc9cc7bc3c0d9ba1U, 0xbd51e218bd610e32U, 0xbd1f4f15bd9531aeU,
  0x3d088ceebca1d66fU, 0xbd9a4062bd402ea4U, 0x3d3102893cd46972U, 0xbbf2c1a6bd68a440U,
  0x3d037e3a3c4a4c0bU, 0x3cb6113dbcabf3d6U, 0x3cc02ea43d1531aeU, 0x3ce8a4403cb6113dU,
  0x3b8d9ba1bd888ceeU, 0xbd837e3a3d0b1447U, 0xbda092c2bd7cdf0dU, 0x3d51e218bc037e3aU,
  0xbcfcdf0dbc72c1a6U, 0xbd68a440bca6e522U, 0xbd402ea4ba21d66fU, 0xbd546972bd9022fbU,
  0x3d060594bcfcdf0dU, 0x3d1022fb3bb6113dU, 0xbd6db2f3bd9022fbU, 0x3d2e7b303cedb2f3U,
  0xbd8605943d310289U, 0xbd8c57f43c9cc7bcU, 0xbbca4c0bbcedb2f3U, 0xbcd978253cb10289U,
  0xbd89d09bbd823a8dU, 0x3d245dc9bd037e3aU, 0x3cc02ea43c36113dU, 0xbd7f6667bd6db2f3U,
  0x3d0d9ba13cf7d05aU, 0xba21d66fbd060594U, 0x3d2e7b303cc53d57U, 0xbd1a4062bd661ce6U,
  0x3d00f6e0bba1d66fU, 0xbc21d66f3ba1d66fU, 0x3d26e522bb8d9ba1U, 0x3c5e86d9bd63958cU,
  0xbc402ea4bd51e218U, 0x3cb10289bd860594U, 0xbc0d9ba1bd296c7cU, 0xbc546972bd3b1ff0U,
  0xbd1f4f15bd1a4062U, 0x3c9cc7bcbd36113dU, 0x3e8365ec3e0f57eaU, 0xbd250fe73dc7cfe2U,
  0x3e0023ed3c8affebU, 0xbd2dbfe6bc2dbfe6U, 0x3dcc27e1bc0affebU, 0xbdb217e5bd9c5fe8U,
  0x3d9807e93e1183eaU, 0x3dd92fdf3d61dfdeU, 0x3d507fe03d6a8fddU, 0xbd507fe0bddd87dfU,
  0x3d1c5fe83c2dbfe6U, 0xbdb66fe4bd8affebU, 0x3cf33fdb3dd92fdfU, 0x3dc7cfe23b8affebU,
  0x3d6a8fdd3de637ddU, 0xbc0affeb3d9c5fe8U, 0xbc733fdb3d2dbfe6U, 0x3d93afeabce1dfdeU,
  0xbd86a7ecbc2dbfe6U, 0xbdf33fdbbe1183eaU, 0xbd86a7ec3c0affebU, 0xbd2dbfe6bd2dbfe6U,
  0x3d024fec3de1dfdeU, 0xbc733fdbbd47cfe2U, 0x3d824fecbdadbfe6U, 0x3d1c5fe83c0affebU,
  0x3d250fe7bb0affebU, 0x3db217e5bd1c5fe8U, 0xbd3f1fe33c8affebU, 0xbe024fecbd1c5fe8U,
  0xbd507fe0bdf797dbU, 0xbdd07fe0be79c3daU, 0xbc9c5fe83da967e6U, 0xbdcc27e13cf33fdbU,
  0x3e0023ed3e0023edU, 0x3cadbfe6bcbf1fe3U, 0x3cd07fe0bc733fdbU, 0x3ddd87df3dcc27e1U,
  0x3dadbfe63dd92fdfU, 0xbda0b7e83c733fdbU, 0xbe4e53e1be89e9ebU, 0xbcadbfe6be1807e9U,
  0x3ce1dfdebe06a7ecU, 0xbd0affeb3c733fdbU, 0xbd13afeabdadbfe6U, 0x3d824fec3cbf1fe3U,
  0x3d8affeb3dea8fddU, 0x3dd07fe03cf33fdbU, 0xbc8affebbb0affebU, 0x3d61dfde3d024fecU,
  0x3d13afeabd0affebU, 0xbe0023ed3c8affebU, 0x3d9c5fe8bdd92fdfU, 0xbdc7cfe2bcd07fe0U,
  0xbd3f1fe3bd1c5fe8U, 0xbdfbefdabda50fe7U, 0x3d2dbfe6bcd07fe0U, 0x3ddd87df3d3f1fe3U,
  0xbd2dbfe63c0affebU, 0x3d3f1fe33d507fe0U, 0xbd3f1fe33da967e6U, 0x3bd07fe03d3f1fe3U,
  0x3d3f1fe33c0affebU, 0x3d7befda3d0affebU, 0x3d0affeb3dcc27e1U, 0x3bd07fe03b0affebU,
  0x3d6a8fdd3d47cfe2U, 0xbe273be73b0affebU, 0xbc507fe0bcbf1fe3U, 0xbcbf1fe3bd9c5fe8U,
  0x3bd07fe03e06a7ecU, 0x3ce1dfde3dbac7e4U, 0x3d592fdfU, 0xbc507fe03cbf1fe3U,
  0xbc733fdbbd1c5fe8U, 0x3d824fecbd592fdfU, 0xbd86a7ec3ce1dfdeU, 0x3da0b7e8bd2dbfe6U,
  0x3d824fecbcadbfe6U, 0xbcf33fdb3dd07fe0U, 0xbe13afeabd6a8fddU, 0xbc8affebbbd07fe0U,
  0x3d3f1fe3bd3f1fe3U, 0xbc0affeb3d3f1fe3U, 0xbb8affebbd250fe7U, 0xbcbf1fe33dbf1fe3U,
  0x3cf33fdb3ce1dfdeU, 0xbb0affeb3d3f1fe3U, 0xbdd07fe0bd824fecU, 0xbdbf1fe3bd86a7ecU,
  0xbcf33fdbbcf33fdbU, 0xbb0affebbd9807e9U, 0x3d61dfde3d1c5fe8U, 0xbc0affebbcd07fe0U,
  0x3d13afeaU, 0x3da50fe73d733fdbU, 0x3cd07fe03d9c5fe8U, 0x3e2dbfe63d0affebU,
  0xbc733fdb3d9807e9U, 0x3d733fdb3cf33fdbU, 0xbd13afea3bd07fe0U, 0xbcd07fe0bd8f57eaU,
  0xbd93afeabdfbefdaU, 0xbb8affebbe0023edU, 0x3d9807e9bc507fe0U, 0xbd2dbfe63ddd87dfU,
  0x3d3f1fe3bc9c5fe8U, 0xbb0affeb3e2967e6U, 0x3d13afea3d824fecU, 0x3d47cfe23de637ddU,
  0x3cbf1fe3U, 0xbd9807e9bc9c5fe8U, 0x3d47cfe23cbf1fe3U, 0x3d507fe0bcbf1fe3U,
  0xbd9807e93c0affebU, 0x3d61dfdebdb217e5U, 0xbcbf1fe3bd8affebU, 0x3e640bdebd733fdbU,
  0x3cf33fdbbe2b93e6U, 0x3e6cbbdc3d1c5fe8U, 0x3d61dfdebd8affebU, 0xbd8affebbd3f1fe3U,
  0x3de1dfde3c2dbfe6U, 0x3c733fdb3d2dbfe6U, 0x3cf33fdb3cbf1fe3U, 0xbd024fec3dadbfe6U,
  0xbd3f1fe3bc733fdbU, 0xbdf33fdbbd93afeaU, 0xbe028f3bbd044ce0U, 0x3db8862abca71dbcU,
  0xbd271dbcbdb8862aU, 0x3c7aac9abba71dbcU, 0xbe028f3bbe28db61U, 0x3d2e144e3d57dbbeU,
  0xbbded250bdf73151U, 0xbd0b4372bd350ae1U, 0x3b5ed2503da71dbcU, 0x3cd0e52b3db8862aU,
  0x3d49ee98bc0b4372U, 0x3dc9ee983d123a04U, 0x3ca71dbc3d123a04U, 0x3cded2503cb50ae1U,
  0x3d271dbc3c271dbcU, 0xbdcd69e2bd73b608U, 0x3d9930973d271dbcU, 0x3d0b43723db50ae1U,
  0x3d50e52b3c271dbcU, 0x3d3c01743d044ce0U, 0x3df3b6083e028f3bU, 0x3cfaac9a3e0d0117U,
  0x3c9930973cded250U, 0x3c993097bb5ed250U, 0xbcc2f8063e00d196U, 0xbda0272abde5c8e2U,
  0x3c271dbc3db50ae1U, 0xbd57dbbebaded250U, 0x3d2e144e3d7aac9aU, 0xbda71dbcbd57dbbeU,
  0xbdbc0174bd20272aU, 0xbd7aac9abc7aac9aU, 0x3d8ebebb3c5ed250U, 0xbe0d0117bdecbf75U,
  0x3d2e144ebc7aac9aU, 0x3aded2503c8b4372U, 0x3d42f8063cded250U, 0x3db8862abaded250U,
  0x3dae144e3d2e144eU, 0x3dbf7cbd3cfaac9aU, 0xbaded2503cd0e52bU, 0xbdbf7cbdbd73b608U,
  0xbd8ebebbbdf03abeU, 0xbda71dbcbd9cabe0U, 0x3d993097be318f98U, 0x3c8b43723d2e144eU,
  0xbdd7dbbebe060a84U, 0xbcecbf753d6cbf75U, 0x3d193097bcb50ae1U, 0x3d95b54ebc7aac9aU,
  0xbcfaac9a3e00d196U, 0x3d73b6083d044ce0U, 0x3c42f8063d80d196U, 0x3d193097bd73b608U,
  0x3c8b4372be15b54eU, 0x3e5d14ab3e21e4ceU, 0x3d7aac9abd123a04U, 0xbdae144e3ca71dbcU,
  0xbcfaac9abdbf7cbdU, 0x3d8b4372bd2e144eU, 0xbd87c829bb5ed250U, 0xbd923a043ba71dbcU,
  0x3c271dbcbc7aac9aU, 0xbdaa9905bb5ed250U, 0xbd42f806bbded250U, 0xbdded2503c993097U,
  0xbd20272abd8b4372U, 0xbc8b4372bd044ce0U, 0x3dbc01743e0b4372U, 0x3da71dbc3e13f7a9U,
  0x3d123a04bba71dbcU, 0x3d0b4372bca71dbcU, 0x3df731513dbf7cbdU, 0xbc42f8063d7aac9aU,
  0x3d044ce03cd0e52bU, 0xbd57dbbe3c0b4372U, 0x3d80d196bd2e144eU, 0xbdecbf75bcecbf75U,
  0xbc7aac9abda0272aU, 0xbd73b608bd50e52bU, 0xbd5ed2503ca71dbcU, 0xbe0b4372bdc9ee98U,
  0x3d3c01743d20272aU, 0xbe15b54ebdb8862aU, 0x3ba71dbc3bded250U, 0xbca71dbc3cb50ae1U,
  0xbcd0e52bbb5ed250U, 0x3c0b4372bc7aac9aU, 0xbd7aac9abcc2f806U, 0xbc42f8063c0b4372U,
  0x3d57dbbe3da0272aU, 0x3cded250bca71dbcU, 0x3c0b43723c8b4372U, 0x3da71dbc3d65c8e2U,
  0x3da0272a3e044ce0U, 0xbc42f8063d8b4372U, 0x3bded2503d57dbbeU, 0x3aded2503d87c829U,
  0x3d0b43723dcd69e2U, 0x3b5ed2503d49ee98U, 0xbaded250bcc2f806U, 0xbc42f806bcecbf75U,
  0xbc271dbc3bded250U, 0xbb5ed2503cfaac9aU, 0x3c0b43723d3c0174U, 0x3d42f806bddb5707U,
  0xbaded250bd271dbcU, 0xbba71dbcbd350ae1U, 0xbd7aac9abd271dbcU, 0xbd123a04bd95b54eU,
  0xbcc2f806bd0b4372U, 0x3d3c0174bd0b4372U, 0x3d9cabe03c42f806U, 0x3db8862a3e060a84U,
  0x3d65c8e23e44b5abU, 0xbc0b43723d8b4372U, 0xbca71dbc3d271dbcU, 0xbcded2503c271dbcU,
  0xbd5ed2503d350ae1U, 0xbc7aac9abd5ed250U, 0xbe0985cdbe5b5707U, 0xbd193097bdf73151U,
  0xbd50e52bbe23a273U, 0x3d271dbcbaded250U, 0x3d271dbcbcded250U, 0x3dc9ee983b5ed250U,
  0x3d49ee983ba71dbcU, 0x3d49ee98bba71dbcU, 0xbd7f0f963c316f04U, 0x3c3c85f43d2ea948U,
  0xbd6090813ca0cc9cU, 0xbd265814bc95b5abU, 0xbcff0f963d5dcac5U, 0xbd87d8ff3d20cc9cU,
  0xbd987b673d5b0509U, 0xbd4a62a1bd609081U, 0xbc265814bcddcac5U, 0x3d07d8ff3c902a33U,
  0xbcf9841e3ca65814U, 0xbbc79ce43d918d11U, 0x3cd83f4dbd4a62a1U, 0x3d07d8ffbc73f8a6U,
  0x3cbc85f400000000U, 0xbc7f0f96bb051343U, 0xbd76be623a316f04U, 0xbcddcac5bd239258U,
  0x3c316f04bd8a9ebbU, 0xbd9e06e03cd83f4dU, 0xbd479ce43cff0f96U, 0xba316f04bd9452cdU,
  0xbd80eaa9bc95b5abU, 0x3b9b41243d239258U, 0x3c3c85f4bd661bf9U, 0xbc7f0f96U,
  0xbcb6fa7cbd7132e9U, 0xbc9b41243c1b4124U, 0xbda4f5363c5dcac5U, 0xbcabe38cbd1e06e0U,
  0x3bb16f04bd8a9ebbU, 0x3cf9841ebd87d8ffU, 0xbc851343bbb16f04U, 0xbd36fa7cbd239258U,
  0x3d479ce4bb316f04U, 0xbd87d8ffbd291dd0U, 0xbd557991bd316f04U, 0xbd661bf93b851343U,
  0x3d39c0383d187b67U, 0x3cee6d2dbd4a62a1U, 0xbd6ba7713cf9841eU, 0xbd987b673b316f04U,
  0xbd867621bc5dcac5U, 0xbc479ce4bd1e06e0U, 0x3b0513433cb16f04U, 0xbd87d8ffbd83b065U,
  0x3d3434c0bccd285dU, 0x3d2658143c479ce4U, 0x3ca0cc9cbd3c85f4U, 0x3c1b4124bd73f8a6U,
  0xbc316f04bcbc85f4U, 0xbd87d8ffbd6ba771U, 0xbc479ce4bcd83f4dU, 0x3c265814bd79841eU,
  0xbc7f0f96U, 0xbc102a33bd8c0199U, 0xbd893bddbd5dcac5U, 0xbda65814bd52b3d5U,
  0x3cf3f8a6bd87d8ffU, 0xbd79841e3d239258U, 0xbd52b3d5bbddcac5U, 0x3cabe38c3d265814U,
  0xbd8ec7553bddcac5U, 0xbd12efefbd4fee19U, 0xbd4fee19bd867621U, 0xbd6090813c1b4124U,
  0xbc7f0f96bc051343U, 0xbc8513433a316f04U, 0xbdb00c26bd76be62U, 0x3d051343bd893bddU,
  0x3d80eaa9bcb6fa7cU, 0x3b316f04ba316f04U, 0xbd8c01993cff0f96U, 0x3cc79ce4bd824d87U,
  0x3d557991bd15b5abU, 0x3cb6fa7cbcb6fa7cU, 0xbc9b4124bcc2116cU, 0xbd291dd0bd8d6477U,
  0x3c3c85f4bc8a9ebbU, 0xbd1b4124bbf3f8a6U, 0x3d5dcac5bc9b4124U, 0x3a316f043cc79ce4U,
  0xbcf9841ebd8ec755U, 0x3d187b673d36fa7cU, 0x3c3c85f4bd557991U, 0x3c902a33bd239258U,
  0xbd8c0199bcc79ce4U, 0xbca65814bdb00c26U, 0xbd5dcac53b051343U, 0x3c9b41243d07d8ffU,
  0x3b5dcac53c95b5abU, 0xbb316f04bda22f7aU, 0x3c7f0f963c73f8a6U, 0xbd79841ebd99de45U,
  0xbd8a9ebb3ce8e1b5U, 0xbbc79ce43ce3563dU, 0x3a316f04bab16f04U, 0xbd7132e93c5dcac5U,
  0xbd987b67bbc79ce4U, 0xbcc79ce4bd609081U, 0x3cf9841ebd0a9ebbU, 0x3d99de45bd15b5abU,
  0xbb5dcac53bb16f04U, 0xbd80eaa93ca65814U, 0xbc8a9ebbbda0cc9cU, 0x3cd2b3d53c3c85f4U,
  0x3d291dd0bc479ce4U, 0x3cb16f0400000000U, 0xba316f04bcf9841eU, 0xbd68e1b5bd479ce4U,
  0xbd609081bd6ba771U, 0xbd42116cbd0d6477U, 0x3cc79ce43d265814U, 0xbc265814bd5dcac5U,
  0xbc8a9ebb3d609081U, 0x3cabe38c3c52b3d5U, 0xbcf3f8a6bd051343U, 0xbd102a33bb5dcac5U,
  0xbd8c01993cc2116cU, 0xbd479ce43ab16f04U, 0xbd051343bcd2b3d5U, 0xbb051343bd3434c0U,
  0xbd291dd03c1b4124U, 0x3d102a333c9b4124U, 0xbc265814bcb6fa7cU, 0x3cbc85f4bd479ce4U,
  0xbdaea948bcb16f04U, 0x3d15b5abbc265814U, 0xbdbceadebc9b025aU, 0xbdb812cb3d41c2f0U,
  0xbda4b2803db812cbU, 0xbd7233adbc87a20fU, 0x3c1b025a3e0c7a22U, 0xbcae62a5bd4b7316U,
  0xbcfbe3d2bdc69b03U, 0x3d8c7a22bd5ed361U, 0xbd82c9fcbd915234U, 0xbde3ab743ce88387U,
  0xbd7be3d2bdb812cbU, 0x3b9b025abd7be3d2U, 0xbd24b280bd5ed361U, 0x3e07a20f3d115234U,
  0xbd07a20fbce88387U, 0x3d1b025a3d688387U, 0x3dd9fb4fbd115234U, 0x3d7be3d23c41c2f0U,
  0x3d8c7a22bdb33ab8U, 0x3e1d6e63bbe88387U, 0xbb9b025abdc69b03U, 0x3be883873c1b025aU,
  0xbd915234bb9b025aU, 0x3ce88387bc1b025aU, 0xbc41c2f0bd915234U, 0x3e9896513dbceadeU,
  0x3c688387bd5ed361U, 0x3e578f453cae62a5U, 0xbc87a20fbc1b025aU, 0x3dc69b033c9b025aU,
  0x3e053605bb9b025aU, 0x3e298a923e24b280U, 0xbdb812cbbc1b025aU, 0x3d82c9fcbd9b025aU,
  0x3c1b025a3cc1c2f0U, 0xbbe88387bdf233adU, 0x3b9b025a3dc69b03U, 0xbdae62a5bd3812cbU,
  0xbdd5233cbbe88387U, 0xbc1b025a3c1b025aU, 0xbe41c2f0be99cc55U, 0xbc87a20fbe3f56e7U,
  0xbc9b025a3c9b025aU, 0x3e224676bdc69b03U, 0x3d8c7a223d2e62a5U, 0x3e02c9fc3b9b025aU,
  0x3d68838700000000U, 0xbcd5233cbc688387U, 0xbd3812cb3cd5233cU, 0xbd55233c3c1b025aU,
  0xbd2e62a53b1b025aU, 0xbe3ceadebe298a92U, 0x3d1b025a3dfbe3d2U, 0xbe333ab8be578f45U,
  0x3dfbe3d23e298a92U, 0xbbe88387be469b03U, 0x3d24b2803b1b025aU, 0xbb9b025abda98a92U,
  0x3ce883873d688387U, 0xbcae62a5bc9b025aU, 0xbd1b025a3c1b025aU, 0xbce883873cfbe3d2U,
  0xbd962a47bd9b025aU, 0xbc688387bc688387U, 0x3da4b280bc1b025aU, 0x3dd5233c3e0a0e18U,
  0xbe115234bc87a20fU, 0xbe0a0e18bd915234U, 0xbb1b025a3d82c9fcU, 0xbde88387bcae62a5U,
  0xbd2e62a53c1b025aU, 0xbd3812cbbda98a92U, 0xbd2e62a5bd7be3d2U, 0xbd4b7316bd915234U,
  0xbe13be3ebe13be3eU, 0xbdb33ab8bd915234U, 0x3c9b025abd915234U, 0x3cae62a5bb1b025aU,
  0xbce883873dc1c2f0U, 0x3d2e62a53c1b025aU, 0xbe2bf69cbe4b7316U, 0xbcfbe3d2be2bf69cU,
  0x3c688387bcd5233cU, 0x3da98a92bd915234U, 0xbd7be3d23e13be3eU, 0x3da4b2803d4b7316U,
  0xbc6883873c688387U, 0x3d07a20fbc688387U, 0x3d82c9fcbcae62a5U, 0x3b1b025a3dd04b29U,
  0x3dae62a5bce88387U, 0x3df70bbf3d115234U, 0x3d24b280bd4b7316U, 0x3e30ceaf3d962a47U,
  0xbc41c2f03cd5233cU, 0xbb1b025a3da98a92U, 0x3d7233adbe35a6c1U, 0x3e8b441d3e07a20fU,
  0x3d1b025abe271e89U, 0x3d1b025a3d915234U, 0xbd9b025abd41c2f0U, 0xbd41c2f0bd41c2f0U,
  0x3d4b73163dc1c2f0U, 0xbb1b025a3d24b280U, 0xbdf70bbfbe0ee62bU, 0x3de3ab743b1b025aU,
  0xbde88387be1d6e63U, 0x3df233ad3d3812cbU, 0xbd7233adbdf233adU, 0x3de3ab743d8c7a22U,
  0xbd962a47bbe88387U, 0xbd3812cb3ce88387U, 0x3e162a473d915234U, 0xbd1152343d82c9fcU,
  0xbb9b025abd7be3d2U, 0xbe3a7ed43c41c2f0U, 0x3d9b025a3df233adU, 0xbcfbe3d23d9b025aU,
  0x3b1b025a3dc69b03U, 0xbdd9fb4f3d82c9fcU, 0xbd41c2f0bce88387U, 0x3d5ed361bdb33ab8U,
  0x3d1152343d4b7316U, 0x3db812cbbd688387U, 0x3d87a20f3d5ed361U, 0x3d5ed361bd115234U,
  0x3dded361bbe88387U, 0x3c87a20f3d962a47U, 0x3e8160003e0a4c23U, 0xbe10fd3e3d4d372cU,
  0x3d29869f3d3b5ee6U, 0xbdd1ad3e3c8ec235U, 0x3d444b09bd933847U, 0xbdb272c2bd209a7cU,
  0x3d5623503e0a4c23U, 0x3d70e7b93d816000U, 0x3b0ec2353dc44b09U, 0xbe22d584be2dfcb1U,
  0x3df0e7b93db6e8d4U, 0xbd70e7b9bd05d612U, 0x3d8160003d9c246aU, 0x3db272c2bc0ec235U,
  0x3e1e5f733ddf0f73U, 0x3dbb5ee63d3272c2U, 0xbd8ec2353d17ae58U, 0x3ca09a7c3ce7fb96U,
  0xbe0c872cbcb272c2U, 0xbcf9d3ddbe08111bU, 0x3c3272c23d5f0f73U, 0xbd933847bdadfcb1U,
  0x3d8160003dda9961U, 0xbd209a7cbd67fb96U, 0x3c0ec2353c562350U, 0x3e70e7b93d85d612U,
  0x3d70e7b93cb272c2U, 0x3e0c872cbd05d612U, 0xbd05d61200000000U, 0x3c0ec235bd8ec235U,
  0xbda9869fbda09a7cU, 0xbd444b09be7e49eeU, 0xbcc44b093d70e7b9U, 0x3c8ec235bd70e7b9U,
  0x3d3272c23db272c2U, 0x3c5623503cd62350U, 0xbd17ae583cb272c2U, 0x3d8160003cf9d3ddU,
  0xbd17ae583d444b09U, 0xbde38584bc3272c2U, 0xbe614a7cbe8da4b1U, 0x3ca09a7cbd9c246aU,
  0x3d05d612bda5108dU, 0x3d4d372c3c562350U, 0x3d79d3dd3d17ae58U, 0x3cd623503dd62350U,
  0x3d97ae583dc44b09U, 0x3d9c246a3d9c246aU, 0xbe29869fbd79d3ddU, 0x3d209a7cbc3272c2U,
  0xbd17ae58be4afc23U, 0xbd444b09be016000U, 0x3d0ec235be614a7cU, 0xbe3d99eebe1c246aU,
  0xbd8a4c23bdd62350U, 0xbe05d612be0ec235U, 0x3cf9d3ddbe10fd3eU, 0x3d8a4c233dfe49eeU,
  0xbd209a7c3c0ec235U, 0x3da09a7c3bd62350U, 0xbd29869f3bd62350U, 0x3d4d372c3b0ec235U,
  0xbd209a7cbd209a7cU, 0x3dcd372c3d0ec235U, 0x3d67fb963d29869fU, 0x3c8ec235bcf9d3ddU,
  0x3b8ec2353d4d372cU, 0xbe3b5ee6bc8ec235U, 0xbd0ec235bd3272c2U, 0xbdec71a83d67fb96U,
  0x3c0ec2353df0e7b9U, 0x3b8ec235bb0ec235U, 0xbc8ec235U, 0xbce7fb96bd05d612U,
  0xbc0ec235bde7fb96U, 0x3db6e8d4bb0ec235U, 0x3d444b093c8ec235U, 0x3ca09a7cbc79d3ddU,
  0xbd3272c2bd70e7b9U, 0xbd8160003c8ec235U, 0xbdb6e8d4bdd62350U, 0x3dbb5ee63b8ec235U,
  0xbc8ec235bd8ec235U, 0xbcc44b093da5108dU, 0x3d3272c23cc44b09U, 0x3c79d3ddbce7fb96U,
  0x3db272c23d67fb96U, 0x3c5623503c562350U, 0x3cc44b093d4d372cU, 0xbe0c872cbd562350U,
  0xbbd623503da9869fU, 0xbcb272c23d444b09U, 0x3d209a7cbbd62350U, 0x3d0ec2353ce7fb96U,
  0x3cf9d3dd3d444b09U, 0x3da09a7c3d85d612U, 0x3e0ec2353b0ec235U, 0x3e85d6123e51ad3eU,
  0xbce7fb96bd444b09U, 0x3d816000bd9c246aU, 0xbde38584bda5108dU, 0xbde38584bdbfd4f7U,
  0xbdf0e7b9bdb272c2U, 0xbb8ec235bda9869fU, 0xbd97ae58bc562350U, 0x3bd623503dc44b09U,
  0x3d562350bd4d372cU, 0xbd3b5ee63d8ec235U, 0x3d8ec235bd3272c2U, 0x3c79d3dd3d97ae58U,
  0xbd05d612bb8ec235U, 0xbd8ec235bb8ec235U, 0x3d9338473c8ec235U, 0xbd209a7c3d17ae58U,
  0xbd209a7c3b8ec235U, 0xbcf9d3ddbd9c246aU, 0xbdd1ad3ebd8ec235U, 0x3d70e7b9bcb272c2U,
  0xbd562350bd67fb96U, 0x3e29869fbd0ec235U, 0x3c3272c23ce7fb96U, 0x3d8a4c233cc44b09U,
  0x3dbfd4f73bd62350U, 0x3da5108d3e08111bU, 0x3b0ec2353c562350U, 0x3b0ec2353cf9d3ddU,
  0xbd4d372c3c0ec235U, 0xbd9c246a3c0ec235U, 0x3e39ea243e209008U, 0x3d0fa94b3d981caaU,
  0xbdd344413e0952c4U, 0x3d9c56593bcad0e2U, 0xbc8735ecbd534441U, 0x3dc25d833e00df65U,
  0x3d9c56593db176c6U, 0x3c4ad0e23c6c9e5dU, 0x3d8b6f9b3df511bcU, 0x3dad3d163dcf0a91U,
  0xbca903673d8b6f9bU, 0x3d39ea24bd534441U, 0xbde864ae3b0735ecU, 0x3d8b6f9bbd181caaU,
  0x3c0735ec3cec9e5dU, 0xbc6c9e5dbd39ea24U, 0xbdcad0e2bd981caaU, 0xbd39ea243b0735ecU,
  0xbd981caabc4ad0e2U, 0xbcb9ea24bdb5b075U, 0x3dd344413d981caaU, 0x3b8735ec3cfd851aU,
  0x3c290367bbcad0e2U, 0xbd981caabcdbb7a0U, 0x3db9ea24bccad0e2U, 0x3d4ad0e23ddbb7a0U,
  0x3b8735ecbd642afeU, 0xbdb176c63d642afeU, 0x3ca90367bd425d83U, 0xbe862780bd534441U,
  0xbcec9e5dbd6c9e5dU, 0xbe4f0a91be11c622U, 0xbc6c9e5dbdbe23d4U, 0xbd5344413cec9e5dU,
  0x3df0d80c3d7511bcU, 0xbdc25d833dcad0e2U, 0x3d82fc3d3e2d3d16U, 0x3b8735ec3da4c9b8U,
  0x3d0735ec3d8fa94bU, 0xbd8fa94b3da09008U, 0x3d39ea24bde42afeU, 0x3c290367bd4ad0e2U,
  0xbcb9ea24be0fa94bU, 0xbca90367bc4ad0e2U, 0x3bcad0e2be35b075U, 0xbc8735ec3db176c6U,
  0x3c4ad0e23dcad0e2U, 0xbdad3d163cec9e5dU, 0x3d8735ec3b0735ecU, 0xbc8735ecbd0fa94bU,
  0x3e0d8c733d181caaU, 0xbc6c9e5d3ddff14fU, 0x3da4c9b8bdb9ea24U, 0xbc8735ec3dfd851aU,
  0x3d5bb7a0bd5bb7a0U, 0x3c8735ecbb8735ecU, 0xbcdbb7a0bdb176c6U, 0x3dd77df03d181caaU,
  0xbdf0d80cbdf94b6bU, 0x3cdbb7a0bd5bb7a0U, 0xbcec9e5dbd425d83U, 0x3c4ad0e2bd181caaU,
  0x3d8735ec3d209008U, 0x3d8b6f9b3c6c9e5dU, 0xbe2d3d16bdb9ea24U, 0xbd0fa94bbdcf0a91U,
  0x3dd77df03db9ea24U, 0x3d3176c63b8735ecU, 0xbcfd851a3d3176c6U, 0xbc0735ec3d6c9e5dU,
  0xbe0735ecbd0735ecU, 0xbd0fa94bbbcad0e2U, 0xbd209008bcdbb7a0U, 0x3d93e2fabdbe23d4U,
  0xbda4c9b8bda90367U, 0x3da90367bd181caaU, 0xbcec9e5dbddff14fU, 0xbb0735ecbd8735ecU,
  0xbd642afeU, 0x3cec9e5d3d6c9e5dU, 0x3b8735ecbd8fa94bU, 0x3d181caa3d0735ecU,
  0xbd7d851abe0952c4U, 0x3cb9ea24bd642afeU, 0xbd0735ecbdb176c6U, 0x3ca903673cfd851aU,
  0x3c8735ec3d5bb7a0U, 0xbdec9e5d3b8735ecU, 0xbd5344413d8fa94bU, 0xbdd34441bdfd851aU,
  0x3cb9ea243d0fa94bU, 0x3d4ad0e2bca90367U, 0xbd0735ecbde864aeU, 0xbd0735ecbd6c9e5dU,
  0xbd209008bd93e2faU, 0xbd93e2fabccad0e2U, 0x3cb9ea243d6c9e5dU, 0x3e0735ec3d8735ecU,
  0xbd181caabd8735ecU, 0xbe0735ecbd290367U, 0xbdb176c6bd425d83U, 0xbb8735ec3d0fa94bU,
  0xbd7d851abda4c9b8U, 0x3c0735ec3d7d851aU, 0x3dcad0e2bd3176c6U, 0xbd642afe3e00df65U,
  0x3c0735ecbd642afeU, 0xbd7511bc3b0735ecU, 0x3d425d83bbcad0e2U, 0x3d39ea243d181caaU,
  0x3dcf0a913d39ea24U, 0x3b0735ec00000000U, 0x3e11c6223de42afeU, 0xbb0735ec3c981caaU,
  0xbdf0d80cbd7511bcU, 0x3dd34441bdf511bcU, 0xbe051914bde42afeU, 0x3e00df653c8735ecU,
  0x3ccad0e2bc981caaU, 0x3e447a5b3e3e23d4U, 0xbd8735ecbcec9e5dU, 0x3c6c9e5dbc0735ecU,
  0x3c8735ecbe26e68fU, 0x3d5344413cec9e5dU, 0x3d0fa94bbb8735ecU, 0xbcec9e5d3d981caaU,
  0x3d7511bc3d4ad0e2U, 0xbd8735ecbdbe23d4U, 0xbc3c14e0bc9cbc10U, 0x3c2c6878bd6b1a18U,
  0xbd8f0535bce343e4U, 0xbd18d0f6bc94e5dcU, 0xbc853974bc7ac680U, 0xbd343eac3bdb6db0U,
  0xbdbffffabd9eb19dU, 0x3bdb6db0bb7ac680U, 0xbd90fac2bcbc14e0U, 0xbdc3eb14bd43eb14U,
  0x3bbc14e03bfac680U, 0xbd8b1a1bbd7ac680U, 0xbc9cbc10bc4bc148U, 0xbcb43eac3db05392U,
  0x3afac680bd92f04fU, 0x3cbc14e03d10fac2U, 0x3bfac6803ceb1a18U, 0xbd2c68783c3c14e0U,
  0xbd3c14e03cfac680U, 0x3c2c68783c7ac680U, 0xbcac6878bd96db69U, 0x3cd3977cbcb43eacU,
  0x3bdb6db03d09248eU, 0x3c5b6db0bd5b6db0U, 0xbd8343e7bce343e4U, 0x3d287d5e3d7ac680U,
  0x3c7ac6803c6b1a18U, 0xbd90fac23cf2f04cU, 0xbd6f05323b7ac680U, 0x3d18d0f6bd14e5dcU,
  0xbdae5e05bd7eb19aU, 0xbc3c14e0bd305392U, 0xbd20a72abd0d0fa8U, 0xbcac68783b3c14e0U,
  0xbccbc148bd76db66U, 0x3bbc14e03ca49244U, 0x3d3c14e0bcd3977cU, 0xbd6f05323c8d0fa8U,
  0x3c8d0fa83dac6878U, 0x3afac6803d014e5aU, 0x3cf2f04cbc2c6878U, 0x3c5b6db0bcf2f04cU,
  0xbc5b6db0bcb43eacU, 0xbd6b1a18bc3c14e0U, 0xbcd3977c3cac6878U, 0xbcfac680bcfac680U,
  0x3d18d0f6bdaa72ebU, 0xbc7ac680bc4bc148U, 0xbd872f013d3ffffaU, 0xbc8d0fa8bc8d0fa8U,
  0xbcd3977c3d249244U, 0xbd8f0535bd8d0fa8U, 0xbd672efe3c7ac680U, 0xbcd3977cbd853974U,
  0xbd43eb14bb9cbc10U, 0x3cac6878bd014e5aU, 0xbd6f0532bd578296U, 0x3d3c14e0bce343e4U,
  0xbd814e5abd43eb14U, 0xbd14e5dcbd5f58caU, 0x3c0d0fa83cfac680U, 0xbd92f04fbd47d62eU,
  0xbc853974bd578296U, 0x3bbc14e03ceb1a18U, 0xbc1cbc10bd8343e7U, 0xbc4bc148bc3c14e0U,
  0xbd053974bb3c14e0U, 0xbca49244bbdb6db0U, 0xbc6b1a183c5b6db0U, 0xbd92f04f3d2c6878U,
  0xbcd3977c3d53977cU, 0x3c94e5dcbc3c14e0U, 0xbcdb6db0bceb1a18U, 0x3cb43eacbd8d0fa8U,
  0x3d0d0fa83b3c14e0U, 0xbd8f0535bd76db66U, 0x3cbc14e03afac680U, 0xbb3c14e0U,
  0x3c5b6db0bc2c6878U, 0xbdba1f53bd10fac2U, 0xbd6b1a18bda687d1U, 0x3d18d0f6bc0d0fa8U,
  0xbd94e5dc00000000U, 0x3d09248ebceb1a18U, 0xbd1cbc10bcfac680U, 0xbccbc148bd8d0fa8U,
  0xbc3c14e03cdb6db0U, 0x3c6b1a18bbfac680U, 0xbd3ffffabd7ac680U, 0x3ca492443b7ac680U,
  0xbccbc148bcb43eacU, 0x3ca49244bdb05392U, 0xbd853974bc853974U, 0xbd014e5abd672efeU,
  0x3a7ac680bd96db69U, 0xbcb43eac3d09248eU, 0xbd3c14e03b3c14e0U, 0xbd43eb14bd43eb14U,
  0x3d43eb14bd9cbc10U, 0x3d18d0f63d20a72aU, 0xbd1cbc10bd96db69U, 0x3c2c6878bd89248eU,
  0xbd6b1a18bd8d0fa8U, 0xbc7ac680bda0a72aU, 0xbd578296bd6b1a18U, 0x3d5b6db03bbc14e0U,
  0x3d014e5a3cfac680U, 0xbc6b1a18bcdb6db0U, 0x3d053974bd89248eU, 0x3d287d5e3bfac680U,
  0xbcac6878bda49244U, 0xbd6343e4bd53977cU, 0x3c0d0fa8bd98d0f6U, 0x3cf2f04c3d014e5aU,
  0x3c6b1a18bc6b1a18U, 0xbd814e5a3bbc14e0U, 0xbdf8d0f33b9cbc10U, 0xbb3c14e03d249244U,
  0xbd3829c6bdf8d0f3U, 0xbd20a72abcf2f04cU, 0xbafac680bd8f0535U, 0xbd014e5abceb1a18U,
  0x3d1cbc10bd20a72aU, 0x3d30539200000000U, 0xbc1cbc103bfac680U, 0xbc5b6db03d305392U,
  0xba7ac6803c2c6878U, 0x3c8d0fa8bdb05392U, 0x3daea626bcf2fd6cU, 0xbd3dd5fc3e2cc02bU,
  0x3d08ae8d3d904678U, 0xbd549dbe3de3cd95U, 0xbd6b65813d3dd5fcU, 0xbbb63e113e02fc9cU,
  0x3c549dbeU, 0x3c72fd6c3e0e607dU, 0xbd88ae8dbc88ae8dU, 0xbd8116a1bd17de64U,
  0x3dc1a1f23e14126eU, 0xbd5c35aabd7a9557U, 0x3ca70e3a3e41a1f2U, 0x3d363e11bc88ae8dU,
  0xbaf2fd6c3df2fd6cU, 0x3daada30bc549dbeU, 0xbd0116a13c549dbeU, 0xbe38240cbdba0a07U,
  0xbd7a95573bf2fd6cU, 0xbe270e3abe14126eU, 0xbd08ae8dbd9baa59U, 0xbbf2fd6cbda34245U,
  0x3d72fd6c3d6b6581U, 0xbbf2fd6cbdc1a1f2U, 0x3d97de64bd1f764fU, 0x3e41a1f23dc1a1f2U,
  0x3d104678bca70e3aU, 0x3c549dbebcf2fd6cU, 0x3cb63e113ce3cd95U, 0xbe52b7c43bb63e11U,
  0x3de7998bbaf2fd6cU, 0xbdd869b43d549dbeU, 0xbd08ae8dbe0116a1U, 0x3ddc35aa3cb63e11U,
  0xbde001a0bd4d05d3U, 0x3d6b658100000000U, 0x3bb63e11be25283fU, 0x3c17de643dd869b4U,
  0x3d9f764fbca70e3aU, 0x3d08ae8d3da34245U, 0x3d9baa59be215c4aU, 0x3d6b65813dd49dbeU,
  0x3e1baa59be1baa59U, 0xbcd49dbe3c97de64U, 0xbca70e3abde7998bU, 0x3c549dbe3c97de64U,
  0x3d270e3abe02fc9cU, 0x3c17de643d104678U, 0x3d104678bb72fd6cU, 0xbd270e3abbb63e11U,
  0x3da34245be1d9054U, 0xbc17de643d4d05d3U, 0x3c97de643cb63e11U, 0xbda70e3a3d549dbeU,
  0x3af2fd6c3d4d05d3U, 0xbc17de643d94126eU, 0xbc97de643dfa9557U, 0x3da342453cd49dbeU,
  0x3af2fd6c3dbdd5fcU, 0x3d63cd953d8c7a82U, 0xbd4d05d3baf2fd6cU, 0xbdd49dbebc549dbeU,
  0xbde001a0be0116a1U, 0xbdaada30bd363e11U, 0x3c72fd6c3e06c892U, 0xbe1f764fbd97de64U,
  0xbc88ae8dbd6b6581U, 0xbdb2721bbd5c35aaU, 0xbd84e297bd7a9557U, 0x3d0116a1bdaea626U,
  0x3cf2fd6c3d4d05d3U, 0x3da70e3a3d7a9557U, 0xbd0116a13db63e11U, 0x3d549dbebd63cd95U,
  0xbcf2fd6cbd7a9557U, 0xbc363e113d17de64U, 0x3b72fd6c3c72fd6cU, 0x3cb63e113d1f764fU,
  0xbd1f764fbd6b6581U, 0xbd6b658100000000U, 0xbcc56de8be25283fU, 0x3d270e3a3d9f764fU,
  0xbdaea626be17de64U, 0xbcf2fd6c3d2ea626U, 0xbdc939ddbe711771U, 0xbd9046783c549dbeU,
  0xbd6b6581be5683b9U, 0xbcc56de83af2fd6cU, 0xbd0116a13d363e11U, 0xbdc1a1f2bd9baa59U,
  0xbc97de64bbb63e11U, 0xbd549dbebd1f764fU, 0x3d0116a13d94126eU, 0xbdcd05d3be549dbeU,
  0xbe15f869bbb63e11U, 0xbd84e297be14126eU, 0x3e1baa593d3dd5fcU, 0x3cb63e113d94126eU,
  0x3dc939dd3d5c35aaU, 0xbe345816bd0116a1U, 0x3d5c35aa3c88ae8dU, 0xbd6b65813af2fd6cU,
  0xbcf2fd6c3d8c7a82U, 0x3da342453d17de64U, 0x3d904678be104678U, 0x3d8c7a823de3cd95U,
  0x3e06c892bd88ae8dU, 0x3c72fd6c3dfe614dU, 0x3da70e3abd104678U, 0xbd84e297bbb63e11U,
  0x3d3dd5fcbce3cd95U, 0x3dbdd5fcbaf2fd6cU, 0x3c549dbe3e2ea626U, 0xbcc56de8bd72fd6cU,
  0x3bf2fd6c3e15f869U, 0xbcf2fd6cbdaea626U, 0xbc17de643e3a0a07U, 0x3da342453d0116a1U,
  0x3db2721b3c88ae8dU, 0x3e456de83d84e297U, 0x3e345816bd6b6581U, 0x3d17de643e308c20U,
  0x3d3dd5fcbc88ae8dU, 0x3b72fd6c3d456de8U, 0x3d9046783d5c35aaU, 0xbddc35aa3d8c7a82U,
  0x3c97de643dc939ddU, 0xbddc35aa3c549dbeU, 0xbd4f88da3c4f88daU, 0x3b5a751cbd39b057U,
  0xbcda751cbd62a64dU, 0x3c2ec416bd8dff52U, 0xbd317f26bc0dff52U, 0xbd81b5883ca3d7d5U,
  0x3d85ce213c704d9eU, 0xbd7df4f03d54fefbU, 0xbc18eb933cd4fefbU, 0x3d5243ea3baec416U,
  0xbcb9b0573d449c99U, 0xbd8dff523bc49c99U, 0x3c449c993cdfeb3cU, 0xbcd4fefbbd4757a9U,
  0xbd7b39e0bd449c99U, 0xbcc49c993c7b39e0U, 0xbcf04d9e3ca94df5U, 0xbcfb39e03d1e61b4U,
  0xbd163083bc7b39e0U, 0xbce5615dbc0dff52U, 0xbda692e5bd62a64dU, 0x3b5a751c3d1e61b4U,
  0x3cdfeb3cbd449c99U, 0xbcead77e3aaec416U, 0xbc8dff52bce5615dU, 0xbd9630833ce5615dU,
  0xbd978e0bbd94d2fbU, 0xbb98eb93bd98eb93U, 0xbc18eb933c39b057U, 0x3b0313103a2ec416U,
  0xbda11cc4bc831310U, 0x3d62a64d3cf5c3bfU, 0xbc449c99bcc49c99U, 0x3d3f26783bda751cU,
  0xbc9e61b4bcbf2678U, 0x3c449c99bd211cc4U, 0xbd6d928e3b5a751cU, 0x3c449c99bb031310U,
  0x3b98eb933cb9b057U, 0x3b98eb93bd2692e5U, 0x3d18eb93bd4757a9U, 0xbda11cc4bd787ecfU,
  0xbd6d928ebd3f2678U, 0x3cb43a37bcaec416U, 0x3cbf2678bb031310U, 0x3d031310bbc49c99U,
  0x3c8dff523c98eb93U, 0xbda27a4c3ca94df5U, 0xbd8470993d57ba0bU, 0xbd7308afbd847099U,
  0x3cb43a37bcaec416U, 0xbd9fbf3c3c031310U, 0x3d5a751c3d62a64dU, 0xbdad668e3cd4fefbU,
  0x3c5a751c3cf5c3bfU, 0xbd6d928ebc449c99U, 0xbd2c09063d05ce21U, 0x3d317f26bd65615dU,
  0x3b98eb933c2ec416U, 0x3bda751c3c9e61b4U, 0xbd031310bcead77eU, 0xbc9e61b43ce5615dU,
  0xbd89e6b9bd8ca1caU, 0xbc0dff52bd90ba62U, 0x3c4f88da3cdfeb3cU, 0xbb831310bc18eb93U,
  0x3d7b39e0bd317f26U, 0xbd36f5473b2ec416U, 0xbd7b39e0bd3f2678U, 0x3d2692e5bcb9b057U,
  0xbd0dff52baaec416U, 0xbd704d9e3c23d7d5U, 0x3d0313103c5a751cU, 0xbcc49c993ccf88daU,
  0x3c8dff52bcd4fefbU, 0xbd1630833c704d9eU, 0xbcca12b9bbaec416U, 0xbd9d042cbd005800U,
  0x3d0b4442bd85ce21U, 0x3cd4fefbbd449c99U, 0xbd0058003d0dff52U, 0xbc937573bd4f88daU,
  0xbd75c3bfbd005800U, 0xbd05ce213d18eb93U, 0xbd872ba9bd088931U, 0xbc937573bc65615dU,
  0xbd343a373d1ba6a4U, 0xbcbf26783c18eb93U, 0xbb8313103c65615dU, 0x3bda751cbcb43a37U,
  0x3c8dff52bd088931U, 0xbd4ccdcabd90ba62U, 0xbd317f263d317f26U, 0xbd4f88dabd8f5cdaU,
  0xbd0058003d294df5U, 0xbcb43a37bd6d928eU, 0xbd6d928ebd62a64dU, 0x3d4f88dabd3c6b68U,
  0x3c2ec4163b5a751cU, 0xbd005800bca94df5U, 0xbd6ad77ebd449c99U, 0xbd7df4f0bd8dff52U,
  0x3cca12b9bc9e61b4U, 0xbaaec4163cf5c3bfU, 0xbc888931bc98eb93U, 0xbc7b39e03c9e61b4U,
  0xbcb9b057bd1ba6a4U, 0xbd5a751cbd9fbf3cU, 0x3a2ec416bd41e188U, 0x3c98eb93bd805800U,
  0x3d41e188bd57ba0bU, 0x3cf5c3bfbd98eb93U, 0xbd211cc4bd5feb3cU, 0xbd978e0bbd98eb93U,
  0xbc704d9ebd317f26U, 0x3d449c993d4f88daU, 0xbaaec4163d211cc4U, 0xbc23d7d5bcf04d9eU,
  0xbd317f26bc98eb93U, 0xbca94df53d3c6b68U, 0x3c2ec416bd2692e5U, 0x3c5a751cbca94df5U,
  0x3d1e61b4bd3c6b68U, 0x3c7b39e0bd343a37U, 0xbcdfeb3c3d10ba62U, 0xbdaaab7dbd6ad77eU,
  0xbda94df53d2c0906U, 0x3c888931bd449c99U, 0xbcadbb88bdbb18baU, 0xbd708d82bd130125U,
  0xbdf73c1bbd4f2485U, 0xbd773c1b3b55d31eU, 0xbe14accbbdc875ecU, 0x3c3b18ba3d69dee9U,
  0xbc205e56bdd27bd2U, 0x3d19afbebad5d31eU, 0xbdf3e4ce3df08d82U, 0xbd205e56bcd5d31eU,
  0x3d9658713e2a643cU, 0x3c708d823d3b18baU, 0x3d270cef3da05e56U, 0x3ce330503c3b18baU,
  0xbd1301253b55d31eU, 0x3d05a3f3bd708d82U, 0x3c205e563dd27bd2U, 0xbdd5d31ebd773c1bU,
  0xbdb46a213c3b18baU, 0x3c205e563cfdeab4U, 0x3ce33050bd773c1bU, 0x3dc875ec3dc1c753U,
  0x3e0fa9d83db112d5U, 0x3c3b18ba3dc51ea0U, 0x3e074f99bd05a3f3U, 0xbd19afbe3e346a21U,
  0x3d205e5600000000U, 0xbd1301253d19afbeU, 0x3c05a3f33c3b18baU, 0xbded3635bcadbb88U,
  0xbc930125bcf08d82U, 0xbd0c528c3d3b18baU, 0xbddc81b7be1eb2b0U, 0x3dfdeab43d69dee9U,
  0xbc55d31ebda70cefU, 0x3d19afbe3dd92a6aU, 0xbcc875ecbc85a3f3U, 0x3d8c528c3dbb18baU,
  0x3dd92a6a3db112d5U, 0x3dc875ec3dadbb88U, 0x3d4f2485be542778U, 0x3da05e563d5c81b7U,
  0x3e4372f9bd4f2485U, 0x3dc51ea03dadbb88U, 0xbd824ca6bdf08d82U, 0x3d69dee9bcfdeab4U,
  0xbd130125bd930125U, 0xbcc875ec3cf08d82U, 0x3d4f2485bd773c1bU, 0x3e1804173d3b18baU,
  0x3d0c528cbcd5d31eU, 0x3cc875ec3cfdeab4U, 0x3c05a3f33c05a3f3U, 0x3c930125bd346a21U,
  0xbdbe7007bd8c528cU, 0x3d7deab43cc875ecU, 0x3d773c1b3d965871U, 0xbcc875ecbd346a21U,
  0x3cd5d31e3db112d5U, 0xbd205e56bd773c1bU, 0x3c205e563c05a3f3U, 0x3c85a3f33c205e56U,
  0xbd9d070abdcbcd39U, 0xbd19afbebd99afbeU, 0xbd1301253d3b18baU, 0x3d2dbb88bd0c528cU,
  0x3d69dee9bdcf2485U, 0x3dfdeab4bd8fa9d8U, 0x3d41c753bce33050U, 0x3e08fb3f3d99afbeU,
  0x3d270cef3d99afbeU, 0x3d6330503c3b18baU, 0xbdf3e4ce3e074f99U, 0xbba05e56bdd27bd2U,
  0xbbd5d31ebcbb18baU, 0x3d205e563d346a21U, 0xbdadbb88bdadbb88U, 0xbd205e56bda3b5a3U,
  0x3daa643c3ba05e56U, 0x3dd27bd23d8c528cU, 0xbd19afbebe3112d5U, 0x3bd5d31e3d7deab4U,
  0xbe0dfe32bdcf2485U, 0x3d4875ec3d130125U, 0xbdf3e4ce3c3b18baU, 0x3d8fa9d83cadbb88U,
  0xbad5d31e3ba05e56U, 0x3c205e563e0dfe32U, 0x3d346a213e130125U, 0xbba05e563c55d31eU,
  0x3dc875ec3d4875ecU, 0x3d19afbe3dcf2485U, 0x3ddc81b7bcd5d31eU, 0xbd4875ecbcd5d31eU,
  0x3cbb18ba3d205e56U, 0x3d88fb3f3dfdeab4U, 0x3dd5d31e3dd5d31eU, 0x3ad5d31e3de6879cU,
  0x3d773c1b3db112d5U, 0xbdc875ecbd05a3f3U, 0xbd0c528cbd4875ecU, 0xbdc875ecbd0c528cU,
  0xbcbb18babd205e56U, 0x3d85a3f33d130125U, 0xbd205e56be346a21U, 0xbc708d82bdbe7007U,
  0xbdcf2485be0fa9d8U, 0xbe08fb3f3bd5d31eU, 0xbcf08d82bd930125U, 0xbd3b18babc05a3f3U,
  0xbd708d823c05a3f3U, 0x3c708d82bc930125U, 0x3d05a3f33dfa9367U, 0xbc85a3f3bcf08d82U,
  0x3cbb18ba3dfdeab4U, 0x3ad5d31ebc205e56U, 0x3d824ca63d7deab4U, 0x3c05a3f3bce33050U,
  0xbcfdeab4bd4f2485U, 0x3d2dbb883d270cefU, 0x3d69dee9bd69dee9U, 0x3e2c0fe23e3e7007U,
  0x3df08d82bd0c528cU, 0xbb55d31e3d9d070aU, 0xbcf08d82bd633050U, 0xbd69dee9bd965871U,
  0xbdf08d82bd55d31eU, 0xbd88fb3fbd930125U, 0x3e5c4eb93db38284U, 0xbc43d4323e253b0bU,
  0x3d12df26be2f6e18U, 0x3c43d4323df0b4d3U, 0xbe3db591be0ecabaU, 0x3d9f1c693b828d77U,
  0xbe31784ebdf0b4d3U, 0xbc647790bde88bfcU, 0xbd12df263d647790U, 0xbd12df263cd425e1U,
  0x3b828d77bd828d77U, 0x3ce47790bd5425e1U, 0x3d5c4eb93cb38284U, 0x3cd425e1bcd425e1U,
  0xbc92df263cd425e1U, 0x3d9f1c69bd6ca068U, 0xbc028d773da330d5U, 0x3c647790bd2b59acU,
  0x3c2330d53b028d77U, 0x3dd83a4d3d828d77U, 0x3c6477903d338284U, 0xbc647790bd6ca068U,
  0xbb828d773bc3d432U, 0xbd86a1e3bb028d77U, 0xbcc3d432be08ac19U, 0x3d0ab64ebca330d5U,
  0xbdab59ac3d028d77U, 0xbd5c4eb9U, 0x3d12df263d9b07fdU, 0x3b028d773b828d77U,
  0x3dc7e89ebb028d77U, 0x3df8ddab3de06325U, 0x3c647790bd0ab64eU, 0xbd4bfd0abd0ab64eU,
  0x3cb38284bd028d77U, 0xbd9f1c69bd2b59acU, 0xbb028d77bce47790U, 0x3db796ef3d1b07fdU,
  0xbd2b59ac3db796efU, 0x3d5c4eb93da74540U, 0xbd9b07fdbde06325U, 0xbd828d77bcb38284U,
  0xbd6ca068be41c9fdU, 0xbd0ab64ebdc3d432U, 0xbe008341be688bfcU, 0xbca330d5bce47790U,
  0xbd828d773cd425e1U, 0x3e06a1e33b828d77U, 0x3dc7e89e3d1b07fdU, 0x3d43d4323dcbfd0aU,
  0x3e3bab5b3da74540U, 0xbcf4c93f3e253b0bU, 0x3dd011763d9b07fdU, 0x3d9b07fd3d74c93fU,
  0x3c43d432bca330d5U, 0x3dfcf2173e12df26U, 0xbca330d5bd5c4eb9U, 0x3c43d432bd028d77U,
  0xbc43d4323d12df26U, 0x3d2b59acbd028d77U, 0xbdbbab5bbc92df26U, 0xbdeca068bd028d77U,
  0xbc647790bde47790U, 0xbc92df263bc3d432U, 0x3e2f6e183d12df26U, 0x3e028d773d96f392U,
  0x3daf6e183d6ca068U, 0x3d74c93f3d9f1c69U, 0xbda330d53bc3d432U, 0x3cc3d432bd4bfd0aU,
  0x3d86a1e33e45de68U, 0x3d828d77bd1b07fdU, 0xbc2330d53d338284U, 0x3d3bab5b3dbbab5bU,
  0xbc828d77bd86a1e3U, 0x3e028d773d86a1e3U, 0x3bc3d432bd2b59acU, 0xbb028d773d2330d5U,
  0x3c2330d5bd5c4eb9U, 0x3d0ab64ebcf4c93fU, 0xbde88bfcbe45de68U, 0xbd5c4eb9bd8ab64eU,
  0xbddc4eb9bdd01176U, 0xbd2b59ac3c2330d5U, 0xbd7cf217bdf0b4d3U, 0x3db382843d8ab64eU,
  0xbc43d432bcb38284U, 0x3dfcf2173d92df26U, 0xbcb382843d8ab64eU, 0xbd7cf2173cb38284U,
  0x3d3382843c828d77U, 0xbdfcf217bda330d5U, 0x3b828d773de06325U, 0x3d6477903d2330d5U,
  0x3c92df263e1b07fdU, 0x3d028d773d1b07fdU, 0xbbc3d432bbc3d432U, 0x3dcbfd0a3d5425e1U,
  0x3d2330d53c828d77U, 0xbc647790bd3bab5bU, 0x3cb382843ce47790U, 0x3d0ab64e3d5425e1U,
  0xbca330d5bce47790U, 0x3c647790bd0ab64eU, 0x3c2330d5bbc3d432U, 0x3dc3d4323d647790U,
  0x3ddc4eb9bc028d77U, 0x3ca330d53e028d77U, 0x3c828d77bdcbfd0aU, 0x3d5c4eb900000000U,
  0xbd5c4eb9bdbbab5bU, 0x3cf4c93fbde47790U, 0x3b028d773e12df26U, 0xbb028d77bc028d77U,
  0x3ddc4eb93e81885cU, 0x3deca068bbc3d432U, 0x3c6477903e49f2d4U, 0xbca330d53cb38284U,
  0x3d5425e13d8ab64eU, 0x3b028d773c2330d5U, 0xbdd425e1be7ae7e1U, 0xbd9b07fd3d86a1e3U,
  0xbd6ca068be45de68U, 0xbdd83a4dbdb38284U, 0xbe0cc084bc92df26U, 0x3d2b59ac3cc3d432U,
  0x3d828d773d647790U, 0x3cb382843d86a1e3U, 0xbca26344bba26344U, 0x3d36afac3da26344U,
  0xbe487288bba26344U, 0xbe1d502abe0e16dcU, 0xbc7394e6bd8903c1U, 0x3da26344bc4afc15U,
  0x3e29ffeb3ddf487eU, 0x3d5522493dbbc2c7U, 0x3dac89783e226344U, 0xbc8e16dc3e29ffebU,
  0xbe1fd9b7bd983d10U, 0xbdda3563be27765eU, 0xbc4afc15bd0e16dcU, 0x3dc5e8fbbb226344U,
  0x3e29ffebbd2c8978U, 0x3d983d103e29ffebU, 0xbc8e16dcbc8e16dcU, 0xbdb6afacbcf394e6U,
  0x3dc5e8fb3dac8978U, 0x3d8e16dc3d983d10U, 0xbd4afc15bdda3563U, 0x3dd522493bf394e6U,
  0xbd7dbb1a3ca26344U, 0xbd83f0a7bdc0d5e1U, 0x3df394e63e1fd9b7U, 0xbddf487ebc7394e6U,
  0xbc8e16dcU, 0x3c226344bd83f0a7U, 0xbd0e16dcbcf394e6U, 0xbe1d502abd2c8978U,
  0xbb2263443c7394e6U, 0xbe1329f6be1329f6U, 0x3d2c89783c226344U, 0xbd03f0a7bd03f0a7U,
  0x3d8e16dc3d40d5e1U, 0x3d8903c13e1329f6U, 0x3c8e16dc3ca26344U, 0x3cb6afac3d03f0a7U,
  0xbe01671abe95b383U, 0xbda26344bd7dbb1aU, 0x3e57abd63e27765eU, 0xbbf394e63d9329f6U,
  0xbcb6afacbcdf487eU, 0xbe29ffeb3b226344U, 0xbccafc153cdf487eU, 0xbcf394e6bdb19c92U,
  0xbd83f0a73dc5e8fbU, 0xbc7394e6bd983d10U, 0xbdbbc2c7bde96eb2U, 0x3d9d502abc8e16dcU,
  0x3e3bc2c7bd183d10U, 0x3d183d10U, 0xbd183d103c8e16dcU, 0xbd9d502abd83f0a7U,
  0xbca263443dc5e8fbU, 0xbdb19c92bde45b98U, 0x3d40d5e13d03f0a7U, 0xbe0b8d4ebd83f0a7U,
  0x3e0b8d4e3c4afc15U, 0x3cdf487e3dc0d5e1U, 0xbd40d5e13e0903c1U, 0x3e01671a3da26344U,
  0x3dac89783d7394e6U, 0x3d03f0a7bbf394e6U, 0xbda26344bd983d10U, 0x3d22634400000000U,
  0xbd183d10bd552249U, 0x3e500f2f3d03f0a7U, 0xbe4afc15be7b318dU, 0xbe45e8fbbe9ac69dU,
  0xbe29ffebbdb6afacU, 0xbe067a34be78a800U, 0x3dee81cc3dd52249U, 0xbc2263443d9329f6U,
  0xbd5522493ba26344U, 0x3c2263443d9329f6U, 0xbca26344bc8e16dcU, 0x3da7765e3cdf487eU,
  0xbcdf487ebd226344U, 0xbd5f487e3cb6afacU, 0x3dd522493e1329f6U, 0xbd8903c13d2c8978U,
  0xbd7dbb1abd40d5e1U, 0x3c7394e6bd40d5e1U, 0x3dac89783d8e16dcU, 0x3bf394e63d0e16dcU,
  0xbcb6afac3ccafc15U, 0xbd226344bd7dbb1aU, 0x3da263443e15b383U, 0x3c7394e63dc0d5e1U,
  0xbdac8978bdda3563U, 0xbd0e16dcbd40d5e1U, 0x3ccafc15bcb6afacU, 0x3dcafc153d2c8978U,
  0xbc7394e600000000U, 0xbb2263443d2c8978U, 0xbd03f0a7bba26344U, 0xbd03f0a7bd9d502aU,
  0x3c4afc153d9329f6U, 0xbbf394e6bc4afc15U, 0x3d226344bd03f0a7U, 0x3d8e16dc3b226344U,
  0xbd696eb2bd5f487eU, 0x3ccafc153d183d10U, 0xbd9d502abca26344U, 0xbe3e4c54bea11e7dU,
  0xbd40d5e13da7765eU, 0xbdd00f2fbe2f1305U, 0x3c7394e63e27765eU, 0xbd8903c1bd8903c1U,
  0xbda7765ebc4afc15U, 0xbd83f0a7bdd52249U, 0x3dd00f2f3cdf487eU, 0x3d36afac3d8e16dcU,
  0xbe10a069be2f1305U, 0xbd9329f6bd8903c1U, 0xbd2c8978be067a34U, 0x3d03f0a73d0e16dcU,
  0x3e183d103e0e16dcU, 0x3dac89783dee81ccU, 0x3d696eb23e1329f6U, 0xbd9329f6bd7dbb1aU,
  0x3d03f0a7bcb6afacU, 0xbc8e16dc3ccafc15U, 0x3c226344bd40d5e1U, 0xbd40d5e13c7394e6U,
  0xbe34261fbdcafc15U, 0xbe03f0a7bddf487eU, 0xbda7c1713ca7c171U, 0xbd4735b6bd323d88U,
  0xbda7c171bb27c171U, 0x3dc1f7abbe156849U, 0x3b27c1713d4735b6U, 0xbdb77b94bce6a9fbU,
  0x3df12612bce6a9fbU, 0xbda7c171bd830f20U, 0xbe156849bdd6efd9U, 0x3d1d455abc51b1cdU,
  0x3d98074ebd3cb99fU, 0x3d27c1713ca7c171U, 0x3df6641e3d27c171U, 0xbce6a9fbbbfba22aU,
  0xbda28365U, 0xbcbcb99fbd5c2de4U, 0xbe34dc8ebda28365U, 0x3d830f20bcd1b1cdU,
  0xbd7ba22abe102a3dU, 0xbcd1b1cdbd98074eU, 0xbd51b1cd3c27c171U, 0xbe85ae26bdf6641eU,
  0x3d084d2c3c27c171U, 0x3db23d883db77b94U, 0xbdd1b1cdbdacff7dU, 0x3d98074ebd66a9fbU,
  0xbd7ba22a3d27c171U, 0xbd66a9fb3ca7c171U, 0xbe2a6077bd8d8b37U, 0x3d27c1713cbcb99fU,
  0xbe0aec32bdb77b94U, 0x3d7126123dcc73c2U, 0x3d3cb99fbc51b1cdU, 0xbd7126123debe807U,
  0x3da283653db23d88U, 0x3cbcb99f3d884d2cU, 0xbcbcb99f3d7ba22aU, 0xbce6a9fb3e12c943U,
  0xbe66a9fbbd084d2cU, 0x3ca7c171bdcc73c2U, 0xbd3cb99fbdebe807U, 0xbdf12612be030f20U,
  0xbdcc73c2bba7c171U, 0xbd323d883b27c171U, 0x3dc1f7ab3e5450d3U, 0x3e084d2c3e0aec32U,
  0x3ba7c1713e73c518U, 0x3d66a9fbbba7c171U, 0x3e2f9e823d323d88U, 0x3ca7c1713dfba22aU,
  0x3bfba22abcbcb99fU, 0x3debe807bbfba22aU, 0xbe377b94be1fe460U, 0x3debe807bde16bf0U,
  0xbe0aec32bcd1b1cdU, 0xbd830f20be6be807U, 0xbc92c943be0aec32U, 0x3d92c943be030f20U,
  0x3c92c943be102a3dU, 0x3d3cb99f3d8d8b37U, 0xbe0d8b37be05ae26U, 0xbde16bf0bde6a9fbU,
  0x3d66a9fbbc7ba22aU, 0x3cfba22a3dd1b1cdU, 0xbc27c171U, 0x3dc1f7ab3d5c2de4U,
  0x3d830f203e25226bU, 0xbd7126123df12612U, 0x3cfba22a3d830f20U, 0xbde16bf0bd51b1cdU,
  0x3d66a9fb3d8d8b37U, 0x3d3cb99f3ba7c171U, 0xbe5ecceabe6be807U, 0xbe18074ebdc1f7abU,
  0xbdf12612bd66a9fbU, 0xbdfba22abd712612U, 0xbe27c1713c92c943U, 0xbd27c171bb27c171U,
  0x3df6641e3e00701bU, 0xbdc735b63d98074eU, 0xbd323d88be1d455aU, 0xbba7c171bda28365U,
  0x3d98074e3d830f20U, 0x3d98074e3ce6a9fbU, 0x3e3cb99f3e41f7abU, 0xbc27c1713d27c171U,
  0x3d3cb99f3e5ecceaU, 0x3de6a9fb3c92c943U, 0x3c51b1cd3ddc2de4U, 0xbcfba22a3d323d88U,
  0xbdacff7d3c51b1cdU, 0x3d12c943bd1d455aU, 0x3ddc2de43b27c171U, 0x3d66a9fb3e102a3dU,
  0xbd084d2c3dc1f7abU, 0xbd4735b6bd27c171U, 0xbe05ae26U, 0xbcbcb99fbcd1b1cdU,
  0xbd084d2cbdc735b6U, 0x3d884d2c3c27c171U, 0xbdebe807be377b94U, 0x3d98074e3c92c943U,
  0xbe41f7ab3d884d2cU, 0x3b27c171bd66a9fbU, 0xbdacff7dbe2a6077U, 0x3d712612bd3cb99fU,
  0xbd27c171bd830f20U, 0x3e00701b3d5c2de4U, 0xbd830f20bd084d2cU, 0xbcd1b1cd3d12c943U,
  0xbd27c171bc7ba22aU, 0xbc51b1cd3c92c943U, 0xbd1d455a3da7c171U, 0xbcfba22abdc1f7abU,
  0xbce6a9fbbe1d455aU, 0x3ca7c1713d92c943U, 0xbdd6efd9bea671eeU, 0xbd3cb99f3cbcb99fU,
  0xbdc735b6bb27c171U, 0xbe156849bda7c171U, 0xbcbcb99fbd7ba22aU, 0x3c7ba22abe030f20U,
  0xbc51b1cd3e80701bU, 0x3cd1b1cd3c51b1cdU, 0x3ce6a9fb3e98074eU, 0x3d084d2cbce6a9fbU,
  0xbd3cb99f3dc735b6U, 0x3c51b1cdbd51b1cdU, 0xbd8155d43d8155d4U, 0xbdd78f0bbdf5bcacU,
  0xbde47e073e05a57dU, 0xbb89f526bd68cdb0U, 0x3c2c72703e3fd8e9U, 0x3d9f83743d7a0c55U,
  0xbb89f5263d7a0c55U, 0x3e23d31d3d3511c2U, 0xbc716d023ddbdeb5U, 0xbd716d02bcac7270U,
  0xbd7a0c553d602e5eU, 0x3d602e5ebdc200bdU, 0xbc716d023c89f526U, 0x3e07cd51bdb0c219U,
  0xbd23d31d3cceefb9U, 0xbb09f526bd96e422U, 0x3bceefb9bd602e5eU, 0xbe16e422bdd78f0bU,
  0xbd3511c23cac7270U, 0xbdac7270bd129478U, 0x3dd33f62U, 0x3d7a0c55bd2c7270U,
  0xbbceefb93c4eefb9U, 0xbc89f526bc9b33cbU, 0x3d716d023d7a0c55U, 0x3e1294783de47e07U,
  0x3dceefb93d85a57dU, 0xbdb9616bbd465067U, 0x3cac72703c2c7270U, 0xbe8155d4bd929478U,
  0xbd4eefb93c09f526U, 0xbe837da8bd7a0c55U, 0x3d9f83743d2c7270U, 0x3e106ca43d9f8374U,
  0xbc9b33cbbc09f526U, 0x3cbdb114bc4eefb9U, 0x3d602e5ebc89f526U, 0xbd9f8374bc09f526U,
  0x3dfe5bfe3d8155d4U, 0xbe09f526be0c1cfbU, 0x3dd33f62bb09f526U, 0x3d4650673d129478U,
  0xbc716d02bcbdb114U, 0x3dac72703d129478U, 0xbc2c72703c9b33cbU, 0x3d4650673e0e44cfU,
  0x3dd78f0bbc09f526U, 0x3cbdb1143ddbdeb5U, 0x3cf16d02bb89f526U, 0x3c716d023d9f8374U,
  0xbc09f526bdd33f62U, 0xbd09f526bc2c7270U, 0xbe037da8be0155d4U, 0xbd7a0c553d3511c2U,
  0xbddbdeb5bc4eefb9U, 0xbd9f8374bd716d02U, 0x3db511c23e2a4a9bU, 0xbe05a57dbd3511c2U,
  0x3d23d31d3ce02e5eU, 0xbcac7270bd3db114U, 0x3da822c6bb89f526U, 0xbc9b33cb3d9b33cbU,
  0x3e0155d43c2c7270U, 0x3cceefb93da822c6U, 0x3c4eefb93d0155d4U, 0xbe2822c6bdb511c2U,
  0x3b89f526bcbdb114U, 0xbd23d31dbdb9616bU, 0xbd4eefb9bd129478U, 0xbc89f526bbceefb9U,
  0xbd0155d4bde8cdb0U, 0xbd9b33cb3cf16d02U, 0xbcf16d02bd3db114U, 0xbd716d02bd8e44cfU,
  0x3d23d31d3db0c219U, 0x3b09f5263d1b33cbU, 0xbcf16d02bc2c7270U, 0x3d716d02bc9b33cbU,
  0x3d602e5ebc2c7270U, 0x3db0c2193d716d02U, 0x3d96e4223d9f8374U, 0x3d4eefb93e07cd51U,
  0x3d7a0c55U, 0x3d578f0bbb09f526U, 0xbc89f5263d3db114U, 0xbdc200bd3c09f526U,
  0xbb09f526bd09f526U, 0xbe037da83db511c2U, 0x3dd78f0b3c716d02U, 0xbd8155d4bd89f526U,
  0xbd09f5263d68cdb0U, 0x3db511c23bceefb9U, 0xbb09f5263d0155d4U, 0x3ce02e5e3c89f526U,
  0xbd7a0c55bdc200bdU, 0xbd0155d4bbceefb9U, 0x3d578f0b3e2a4a9bU, 0x3d2c72703d8155d4U,
  0x3d2c72703d4eefb9U, 0xbe30c219bd23d31dU, 0x3e106ca43d09f526U, 0xbc89f5263dc65067U,
  0xbd7a0c55bdb9616bU, 0xbd3db114bd9b33cbU, 0x3d716d02bc716d02U, 0xbde47e07bcac7270U,
  0xbc89f526bd3db114U, 0xbdc200bdbdc65067U, 0x3d465067bd3511c2U, 0x3d23d31d3d85a57dU,
  0x3d96e4223d4eefb9U, 0x3c9b33cb3e037da8U, 0xbd9f83743d3db114U, 0xbe88e13cbd96e422U,
  0xbdd78f0bbd1b33cbU, 0xbe442892be1d5b9fU, 0xbc2c7270bde8cdb0U, 0xbcceefb9bd716d02U,
  0xbd716d02bce02e5eU, 0x3e14bc4dbda822c6U, 0x3db9616b3d716d02U, 0x3d9b33cb3dac7270U,
  0x3d4eefb9bc9b33cbU, 0x3c2c72703d8155d4U, 0x3de8cdb0bd8155d4U, 0xbdb511c2bd0155d4U,
  0x3c716d023dc200bdU, 0xbdc200bdbd23d31dU, 0xbdb215d53d377b57U, 0xbe06e9c0bdd276e4U,
  0xbd81843ebc2cb052U, 0xbdfda2f8bd81843eU, 0xbcacb052bde2a76cU, 0xbd6d7271bc57dc66U,
  0x3d9c7fcabc01843eU, 0x3d62a76cbdb77b57U, 0xbe3215d53da1e54dU, 0xbeab56f1be62a76cU,
  0xbd4d1161bc971a48U, 0xbe47abdfbd6d7271U, 0x3d971a4800000000U, 0x3d377b57bcacb052U,
  0x3d86e9c03d0c4f43U, 0xbc971a48U, 0x3d42465c3d2cb052U, 0xbd6d72713dacb052U,
  0x3d2cb052bcc2465cU, 0xbc81843ebcacb052U, 0x3da1e54dbc57dc66U, 0x3d91b4c53c81843eU,
  0x3d81843e3c57dc66U, 0x3d62a76c3c01843eU, 0x3d971a483bacb052U, 0x3e8af5e23da1e54dU,
  0xbc81843ebc01843eU, 0x3df83d76bc01843eU, 0xbd21e54dbd01843eU, 0x3d62a76cbdbce0daU,
  0x3d01843e3bacb052U, 0xbd62a76cbdf2d7f3U, 0xbdc2465cbc57dc66U, 0x3c81843ebd57dc66U,
  0xbd81843e3d377b57U, 0xbd2cb052bd86e9c0U, 0xbd21e54d3d42465cU, 0xbd8c4f43bdb77b57U,
  0x3de80cee3d171a48U, 0xbd171a48bc01843eU, 0xbe377b57be930e26U, 0xbd86e9c0be19cd09U,
  0x3d8c4f43bd971a48U, 0x3c2cb0523cd7dc66U, 0xbd783d76bc57dc66U, 0x3db215d53d01843eU,
  0xbbacb052bcd7dc66U, 0x3d8c4f43bd57dc66U, 0x3e21e54d3c57dc66U, 0x3e680cee3e5a8f28U,
  0x3ddd41e9bd86e9c0U, 0x3d62a76c3de80ceeU, 0x3c57dc663cacb052U, 0xbdf2d7f3bd2cb052U,
  0xbde80ceebcacb052U, 0xbd171a48bdcd1161U, 0x3d01843e3d8c4f43U, 0x3d91b4c5bd783d76U,
  0xbd42465c3dacb052U, 0xbd57dc6600000000U, 0x3c2cb0523c81843eU, 0x3cacb052bd81843eU,
  0x3d4d1161bc971a48U, 0x3dacb0523db215d5U, 0x3d171a48bbacb052U, 0xbd21e54d3d86e9c0U,
  0x3db215d53d6d7271U, 0xbb2cb052bd01843eU, 0xbd2cb052bbacb052U, 0xbd171a48bd01843eU,
  0x3cacb0523d971a48U, 0x3d171a483c01843eU, 0xbc971a48bd171a48U, 0xbd86e9c0bd21e54dU,
  0xbc81843ebd171a48U, 0x3c57dc66bdacb052U, 0xbc971a483d8c4f43U, 0xbc57dc663cacb052U,
  0x3d4d11613d2cb052U, 0x3d91b4c53dbce0daU, 0xbd21e54dbe274acfU, 0x3da74acfbcd7dc66U,
  0x3d971a48bced7271U, 0x3dd276e43c971a48U, 0x3cc2465cbd0c4f43U, 0xbbacb052bced7271U,
  0x3d21e54d3cc2465cU, 0x3dcd1161bd377b57U, 0x3dc2465c3d91b4c5U, 0xbdbce0dabced7271U,
  0x3d171a483d86e9c0U, 0xbc57dc663d01843eU, 0x3cd7dc66bcacb052U, 0x3d8c4f433da1e54dU,
  0x3c971a483cd7dc66U, 0x3d971a483da1e54dU, 0x3e1c7fca3d91b4c5U, 0x3e42465c3e8436ffU,
  0x3da1e54dbb2cb052U, 0x3ded7271bd2cb052U, 0x3dacb052bd783d76U, 0x3d377b57bd6d7271U,
  0xbd62a76cbd86e9c0U, 0x3bacb0523cd7dc66U, 0x3c57dc66bd42465cU, 0x3d171a483c971a48U,
  0xbd91b4c5bd57dc66U, 0xbc57dc66bd62a76cU, 0x3d2cb052bc57dc66U, 0x3d91b4c5bd21e54dU,
  0x3d21e54d3d01843eU, 0x3c01843ebd783d76U, 0x3d81843e3d57dc66U, 0xbcacb0523cacb052U,
  0x3ddd41e9bc81843eU, 0xbcacb0523d21e54dU, 0x3b2cb052bcacb052U, 0x3d8c4f433b2cb052U,
  0xbb2cb052bd377b57U, 0x3dfda2f8bdc7abdfU, 0xbd42465cbd6d7271U, 0x3da1e54d3d81843eU,
  0x3d783d76bb2cb052U, 0x3cacb0523c01843eU, 0xbcacb052bd971a48U, 0xbced72713c2cb052U,
  0xbd2cb052be099c81U, 0x3d01843e3c2cb052U, 0x3d137b683c720597U, 0xbb720597bc9ed3abU,
  0x3af20597bd5b5511U, 0x3d53c4e4bd082325U, 0xbd75cdadbd53c4e4U, 0xbd91975dbc44a48bU,
  0xbd955f73bc97437eU, 0xbb358431bd2df405U, 0xbaf20597bcf995c4U, 0x3d3d145e3d5b5511U,
  0x3c720597bcdb5511U, 0x3c62e53ebb97437eU, 0x3db7683c3c17437eU, 0xbc53c4e4bd4c34b7U,
  0xbd40dc74bd578cfaU, 0x3d0fb3523d0092f8U, 0x3d3584313c882325U, 0x3c8823253cf20597U,
  0x3c358431bcc4a48bU, 0x3d394c483d6e3d81U, 0x3d578cfabaf20597U, 0xbc2663d8bd31bc1bU,
  0x3d0beb3bbd9cefa0U, 0xbd486ca1bcdb5511U, 0x3ca663d83cb58431U, 0x3db584313d4ffcceU,
  0xbd9ed3abbd99278aU, 0xbd394c48bc082325U, 0x3d045b0fbd229bc1U, 0xbc8823253d2df405U,
  0xbd937b68bd6a756aU, 0xbc8092f8bcc4a48bU, 0xbd4ffccebd40dc74U, 0xbdcffccebd8fb352U,
  0x3c44a48bbcb58431U, 0x3cea756abd1b0b95U, 0xbd99278a3bb58431U, 0xbd578cfa3c62e53eU,
  0x3d62e53e3d0092f8U, 0xbda0b7b6bd045b0fU, 0xbdc86ca13bd3c4e4U, 0x3d62e53ebbd3c4e4U,
  0xbd8fb352bd66ad54U, 0xbd955f73bd1b0b95U, 0xbcb58431bcdb5511U, 0x3c8fb3523cb58431U,
  0xba720597bcb58431U, 0x3cadf405bd6a756aU, 0xba720597bc97437eU, 0x3cc4a48bbd17437eU,
  0x3d62e53ebd045b0fU, 0x3cdb5511bccc34b7U, 0xbd53c4e43b97437eU, 0xbc0823253d229bc1U,
  0xbd137b68bd863f1aU, 0xbbd3c4e4bce2e53eU, 0xbdcc34b7bd955f73U, 0xbcb58431bd0092f8U,
